{
  "version": "1.0",
  "truncation": null,
  "padding": null,
  "added_tokens": [
    {
      "id": 0,
      "content": "[PAD]",
      "single_word": false,
      "lstrip": false,
      "rstrip": false,
      "normalized": false,
      "special": true
    },
    {
      "id": 100,
      "content": "[UNK]",
      "single_word": false,
      "lstrip": false,
      "rstrip": false,
      "normalized": false,
      "special": true
    },
    {
      "id": 101,
      "content": "[CLS]",
      "single_word": false,
      "lstrip": false,
      "rstrip": false,
      "normalized": false,
      "special": true
    },
    {
      "id": 102,
      "content": "[SEP]",
      "single_word": false,
      "lstrip": false,
      "rstrip": false,
      "normalized": false,
      "special": true
    },
    {
      "id": 103,
      "content": "[MASK]",
      "single_word": false,
      "lstrip": false,
      "rstrip": false,
      "normalized": false,
      "special": true
    }
  ],
  "normalizer": {
    "type": "BertNormalizer",
    "clean_text": true,
    "handle_chinese_chars": true,
    "strip_accents": null,
    "lowercase": true
  },
  "pre_tokenizer": {
    "type": "BertPreTokenizer"
  },
  "post_processor": {
    "type": "TemplateProcessing",
    "single": [
      {
        "SpecialToken": {
          "id": "[CLS]",
          "type_id": 0
        }
      },
      {
        "Sequence": {
          "id": "A",
          "type_id": 0
        }
      },
      {
        "SpecialToken": {
          "id": "[SEP]",
          "type_id": 0
        }
      }
    ],
    "pair": [
      {
        "SpecialToken": {
          "id": "[CLS]",
          "type_id": 0
        }
      },
      {
        "Sequence": {
          "id": "A",
          "type_id": 0
        }
      },
      {
        "SpecialToken": {
          "id": "[SEP]",
          "type_id": 0
        }
      },
      {
        "Sequence": {
          "id": "B",
          "type_id": 1
        }
      },
      {
        "SpecialToken": {
          "id": "[SEP]",
          "type_id": 1
        }
      }
    ],
    "special_tokens": {
      "[CLS]": {
        "id": "[CLS]",
        "ids": [
          101
        ],
        "tokens": [
          "[CLS]"
        ]
      },
      "[SEP]": {
        "id": "[SEP]",
        "ids": [
          102
        ],
        "tokens": [
          "[SEP]"
        ]
      }
    }
  },
  "decoder": {
    "type": "WordPiece",
    "prefix": "##",
    "cleanup": true
  },
  "model": {
    "type": "WordPiece",
    "unk_token": "[UNK]",
    "continuing_subword_prefix": "##",
    "max_input_chars_per_word": 100,
    "vocab": {
      "[PAD]": 0,
      "[unused1]": 1,
      "[unused2]": 2,
      "[unused3]": 3,
      "[unused4]": 4,
      "[unused5]": 5,
      "[unused6]": 6,
      "[unused7]": 7,
      "[unused8]": 8,
      "[unused9]": 9,
      "[unused10]": 10,
      "[unused11]": 11,
      "[unused12]": 12,
      "[unused13]": 13,
      "[unused14]": 14,
      "[unused15]": 15,
      "[unused16]": 16,
      "[unused17]": 17,
      "[unused18]": 18,
      "[unused19]": 19,
      "[unused20]": 20,
      "[unused21]": 21,
      "[unused22]": 22,
      "[unused23]": 23,
      "[unused24]": 24,
      "[unused25]": 25,
      "[unused26]": 26,
      "[unused27]": 27,
      "[unused28]": 28,
      "[unused29]": 29,
      "[unused30]": 30,
      "[unused31]": 31,
      "[unused32]": 32,
      "[unused33]": 33,
      "[unused34]": 34,
      "[unused35]": 35,
      "[unused36]": 36,
      "[unused37]": 37,
      "[unused38]": 38,
      "[unused39]": 39,
      "[unused40]": 40,
      "[unused41]": 41,
      "[unused42]": 42,
      "[unused43]": 43,
      "[unused44]": 44,
      "[unused45]": 45,
      "[unused46]": 46,
      "[unused47]": 47,
      "[unused48]": 48,
      "[unused49]": 49,
      "[unused50]": 50,
      "[unused51]": 51,
      "[unused52]": 52,
      "[unused53]": 53,
      "[unused54]": 54,
      "[unused55]": 55,
      "[unused56]": 56,
      "[unused57]": 57,
      "[unused58]": 58,
      "[unused59]": 59,
      "[unused60]": 60,
      "[unused61]": 61,
      "[unused62]": 62,
      "[unused63]": 63,
      "[unused64]": 64,
      "[unused65]": 65,
      "[unused66]": 66,
      "[unused67]": 67,
      "[unused68]": 68,
      "[unused69]": 69,
      "[unused70]": 70,
      "[unused71]": 71,
      "[unused72]": 72,
      "[unused73]": 73,
      "[unused74]": 74,
      "[unused75]": 75,
      "[unused76]": 76,
      "[unused77]": 77,
      "[unused78]": 78,
      "[unused79]": 79,
      "[unused80]": 80,
      "[unused81]": 81,
      "[unused82]": 82,
      "[unused83]": 83,
      "[unused84]": 84,
      "[unused85]": 85,
      "[unused86]": 86,
      "[unused87]": 87,
      "[unused88]": 88,
      "[unused89]": 89,
      "[unused90]": 90,
      "[unused91]": 91,
      "[unused92]": 92,
      "[unused93]": 93,
      "[unused94]": 94,
      "[unused95]": 95,
      "[unused96]": 96,
      "[unused97]": 97,
      "[unused98]": 98,
      "[unused99]": 99,
      "[UNK]": 100,
      "[CLS]": 101,
      "[SEP]": 102,
      "[MASK]": 103,
      "<S>": 104,
      "<T>": 105,
      "!": 106,
      "\"": 107,
      "#": 108,
      "$": 109,
      "%": 110,
      "&": 111,
      "'": 112,
      "(": 113,
      ")": 114,
      "*": 115,
      "+": 116,
      ",": 117,
      "-": 118,
      ".": 119,
      "/": 120,
      "0": 121,
      "1": 122,
      "2": 123,
      "3": 124,
      "4": 125,
      "5": 126,
      "6": 127,
      "7": 128,
      "8": 129,
      "9": 130,
      ":": 131,
      ";": 132,
      "<": 133,
      "=": 134,
      ">": 135,
      "?": 136,
      "@": 137,
      "[": 138,
      "\\": 139,
      "]": 140,
      "^": 141,
      "a": 142,
      "b": 143,
      "c": 144,
      "d": 145,
      "e": 146,
      "f": 147,
      "g": 148,
      "h": 149,
      "i": 150,
      "j": 151,
      "k": 152,
      "l": 153,
      "m": 154,
      "n": 155,
      "o": 156,
      "p": 157,
      "q": 158,
      "r": 159,
      "s": 160,
      "t": 161,
      "u": 162,
      "v": 163,
      "w": 164,
      "x": 165,
      "y": 166,
      "z": 167,
      "{": 168,
      "|": 169,
      "}": 170,
      "–": 171,
      "—": 172,
      "‘": 173,
      "’": 174,
      "“": 175,
      "”": 176,
      "…": 177,
      "、": 178,
      "。": 179,
      "〈": 180,
      "〉": 181,
      "《": 182,
      "》": 183,
      "「": 184,
      "」": 185,
      "『": 186,
      "』": 187,
      "【": 188,
      "】": 189,
      "〔": 190,
      "〕": 191,
      "一": 192,
      "丁": 193,
      "七": 194,
      "万": 195,
      "丈": 196,
      "三": 197,
      "上": 198,
      "下": 199,
      "丌": 200,
      "不": 201,
      "与": 202,
      "丏": 203,
      "丐": 204,
      "丑": 205,
      "专": 206,
      "且": 207,
      "丕": 208,
      "世": 209,
      "丘": 210,
      "丙": 211,
      "业": 212,
      "丛": 213,
      "东": 214,
      "丝": 215,
      "丞": 216,
      "両": 217,
      "丢": 218,
      "两": 219,
      "严": 220,
      "丧": 221,
      "丨": 222,
      "个": 223,
      "丫": 224,
      "中": 225,
      "丰": 226,
      "串": 227,
      "临": 228,
      "丶": 229,
      "丸": 230,
      "丹": 231,
      "为": 232,
      "主": 233,
      "丼": 234,
      "丽": 235,
      "举": 236,
      "丿": 237,
      "乂": 238,
      "乃": 239,
      "久": 240,
      "么": 241,
      "义": 242,
      "之": 243,
      "乌": 244,
      "乍": 245,
      "乎": 246,
      "乏": 247,
      "乐": 248,
      "乒": 249,
      "乓": 250,
      "乔": 251,
      "乖": 252,
      "乗": 253,
      "乘": 254,
      "乙": 255,
      "乛": 256,
      "乜": 257,
      "九": 258,
      "乞": 259,
      "也": 260,
      "习": 261,
      "乡": 262,
      "书": 263,
      "乩": 264,
      "买": 265,
      "乱": 266,
      "乳": 267,
      "乾": 268,
      "亀": 269,
      "了": 270,
      "予": 271,
      "争": 272,
      "亊": 273,
      "事": 274,
      "二": 275,
      "亍": 276,
      "于": 277,
      "亏": 278,
      "云": 279,
      "互": 280,
      "亓": 281,
      "五": 282,
      "井": 283,
      "亘": 284,
      "亚": 285,
      "些": 286,
      "亜": 287,
      "亟": 288,
      "亡": 289,
      "亢": 290,
      "交": 291,
      "亥": 292,
      "亦": 293,
      "产": 294,
      "亨": 295,
      "亩": 296,
      "享": 297,
      "京": 298,
      "亭": 299,
      "亮": 300,
      "亲": 301,
      "亳": 302,
      "亵": 303,
      "亶": 304,
      "亹": 305,
      "人": 306,
      "亻": 307,
      "亿": 308,
      "什": 309,
      "仁": 310,
      "仃": 311,
      "仄": 312,
      "仅": 313,
      "仆": 314,
      "仇": 315,
      "仉": 316,
      "今": 317,
      "介": 318,
      "仍": 319,
      "从": 320,
      "仏": 321,
      "仑": 322,
      "仓": 323,
      "仔": 324,
      "仕": 325,
      "他": 326,
      "仗": 327,
      "付": 328,
      "仙": 329,
      "仝": 330,
      "仞": 331,
      "仟": 332,
      "仡": 333,
      "代": 334,
      "令": 335,
      "以": 336,
      "仨": 337,
      "仪": 338,
      "仫": 339,
      "们": 340,
      "仮": 341,
      "仰": 342,
      "仲": 343,
      "仵": 344,
      "件": 345,
      "价": 346,
      "任": 347,
      "份": 348,
      "仿": 349,
      "企": 350,
      "伉": 351,
      "伊": 352,
      "伋": 353,
      "伍": 354,
      "伎": 355,
      "伏": 356,
      "伐": 357,
      "休": 358,
      "众": 359,
      "优": 360,
      "伙": 361,
      "会": 362,
      "伛": 363,
      "伝": 364,
      "伞": 365,
      "伟": 366,
      "传": 367,
      "伢": 368,
      "伤": 369,
      "伥": 370,
      "伦": 371,
      "伧": 372,
      "伪": 373,
      "伫": 374,
      "伯": 375,
      "估": 376,
      "伱": 377,
      "伲": 378,
      "伴": 379,
      "伶": 380,
      "伸": 381,
      "伺": 382,
      "似": 383,
      "伽": 384,
      "伾": 385,
      "佃": 386,
      "但": 387,
      "佉": 388,
      "位": 389,
      "低": 390,
      "住": 391,
      "佐": 392,
      "佑": 393,
      "体": 394,
      "何": 395,
      "佗": 396,
      "佘": 397,
      "余": 398,
      "佚": 399,
      "佛": 400,
      "作": 401,
      "佝": 402,
      "佞": 403,
      "佟": 404,
      "你": 405,
      "佢": 406,
      "佣": 407,
      "佤": 408,
      "佥": 409,
      "佩": 410,
      "佬": 411,
      "佯": 412,
      "佰": 413,
      "佳": 414,
      "佴": 415,
      "佶": 416,
      "佺": 417,
      "佻": 418,
      "佼": 419,
      "佾": 420,
      "使": 421,
      "侂": 422,
      "侃": 423,
      "侄": 424,
      "侈": 425,
      "侉": 426,
      "例": 427,
      "侍": 428,
      "侏": 429,
      "侑": 430,
      "侔": 431,
      "侗": 432,
      "侘": 433,
      "供": 434,
      "依": 435,
      "侠": 436,
      "価": 437,
      "侣": 438,
      "侥": 439,
      "侦": 440,
      "侧": 441,
      "侨": 442,
      "侩": 443,
      "侪": 444,
      "侬": 445,
      "侮": 446,
      "侯": 447,
      "侵": 448,
      "便": 449,
      "促": 450,
      "俄": 451,
      "俅": 452,
      "俊": 453,
      "俎": 454,
      "俏": 455,
      "俐": 456,
      "俑": 457,
      "俗": 458,
      "俘": 459,
      "俚": 460,
      "俛": 461,
      "保": 462,
      "俞": 463,
      "俟": 464,
      "信": 465,
      "俣": 466,
      "俦": 467,
      "俨": 468,
      "俩": 469,
      "俪": 470,
      "俭": 471,
      "修": 472,
      "俯": 473,
      "俱": 474,
      "俳": 475,
      "俶": 476,
      "俸": 477,
      "俺": 478,
      "俾": 479,
      "倅": 480,
      "倌": 481,
      "倍": 482,
      "倏": 483,
      "倒": 484,
      "倓": 485,
      "倔": 486,
      "倘": 487,
      "候": 488,
      "倚": 489,
      "倜": 490,
      "倞": 491,
      "借": 492,
      "倡": 493,
      "値": 494,
      "倥": 495,
      "倦": 496,
      "倧": 497,
      "倨": 498,
      "倩": 499,
      "倪": 500,
      "倬": 501,
      "倭": 502,
      "倮": 503,
      "倶": 504,
      "债": 505,
      "倻": 506,
      "值": 507,
      "倾": 508,
      "偁": 509,
      "偃": 510,
      "假": 511,
      "偈": 512,
      "偌": 513,
      "偎": 514,
      "偏": 515,
      "偓": 516,
      "偕": 517,
      "做": 518,
      "停": 519,
      "健": 520,
      "偬": 521,
      "偰": 522,
      "偲": 523,
      "偶": 524,
      "偷": 525,
      "偻": 526,
      "偾": 527,
      "偿": 528,
      "傀": 529,
      "傅": 530,
      "傈": 531,
      "傉": 532,
      "傍": 533,
      "傒": 534,
      "傕": 535,
      "傣": 536,
      "傥": 537,
      "傧": 538,
      "储": 539,
      "傩": 540,
      "催": 541,
      "傲": 542,
      "傻": 543,
      "働": 544,
      "僎": 545,
      "像": 546,
      "僖": 547,
      "僚": 548,
      "僦": 549,
      "僧": 550,
      "僭": 551,
      "僮": 552,
      "僰": 553,
      "僳": 554,
      "僵": 555,
      "僻": 556,
      "儆": 557,
      "儇": 558,
      "儋": 559,
      "儒": 560,
      "儚": 561,
      "儡": 562,
      "儿": 563,
      "兀": 564,
      "允": 565,
      "元": 566,
      "兄": 567,
      "充": 568,
      "兆": 569,
      "先": 570,
      "光": 571,
      "克": 572,
      "免": 573,
      "児": 574,
      "兑": 575,
      "兔": 576,
      "兕": 577,
      "兖": 578,
      "党": 579,
      "兜": 580,
      "兢": 581,
      "入": 582,
      "全": 583,
      "八": 584,
      "公": 585,
      "六": 586,
      "兮": 587,
      "兰": 588,
      "共": 589,
      "关": 590,
      "兴": 591,
      "兵": 592,
      "其": 593,
      "具": 594,
      "典": 595,
      "兹": 596,
      "养": 597,
      "兼": 598,
      "兽": 599,
      "冀": 600,
      "内": 601,
      "円": 602,
      "冇": 603,
      "冈": 604,
      "冉": 605,
      "册": 606,
      "再": 607,
      "冏": 608,
      "冒": 609,
      "冕": 610,
      "冗": 611,
      "写": 612,
      "军": 613,
      "农": 614,
      "冠": 615,
      "冢": 616,
      "冤": 617,
      "冥": 618,
      "冨": 619,
      "冬": 620,
      "冯": 621,
      "冰": 622,
      "冲": 623,
      "决": 624,
      "冴": 625,
      "况": 626,
      "冶": 627,
      "冷": 628,
      "冻": 629,
      "冼": 630,
      "冽": 631,
      "净": 632,
      "凃": 633,
      "凄": 634,
      "准": 635,
      "凇": 636,
      "凉": 637,
      "凊": 638,
      "凋": 639,
      "凌": 640,
      "减": 641,
      "凑": 642,
      "凖": 643,
      "凛": 644,
      "凝": 645,
      "几": 646,
      "凡": 647,
      "凤": 648,
      "処": 649,
      "凪": 650,
      "凫": 651,
      "凭": 652,
      "凯": 653,
      "凰": 654,
      "凳": 655,
      "凶": 656,
      "凸": 657,
      "凹": 658,
      "出": 659,
      "击": 660,
      "凼": 661,
      "函": 662,
      "凿": 663,
      "刀": 664,
      "刁": 665,
      "刂": 666,
      "刃": 667,
      "分": 668,
      "切": 669,
      "刈": 670,
      "刊": 671,
      "刍": 672,
      "刎": 673,
      "刑": 674,
      "划": 675,
      "刖": 676,
      "列": 677,
      "刘": 678,
      "则": 679,
      "刚": 680,
      "创": 681,
      "初": 682,
      "删": 683,
      "判": 684,
      "刨": 685,
      "利": 686,
      "别": 687,
      "刬": 688,
      "刭": 689,
      "刮": 690,
      "到": 691,
      "刳": 692,
      "制": 693,
      "刷": 694,
      "券": 695,
      "刹": 696,
      "刺": 697,
      "刻": 698,
      "刽": 699,
      "刿": 700,
      "剀": 701,
      "剁": 702,
      "剂": 703,
      "剃": 704,
      "削": 705,
      "剌": 706,
      "前": 707,
      "剐": 708,
      "剑": 709,
      "剔": 710,
      "剖": 711,
      "剜": 712,
      "剞": 713,
      "剡": 714,
      "剣": 715,
      "剥": 716,
      "剧": 717,
      "剩": 718,
      "剪": 719,
      "副": 720,
      "割": 721,
      "剽": 722,
      "剿": 723,
      "劂": 724,
      "劈": 725,
      "劓": 726,
      "力": 727,
      "劝": 728,
      "办": 729,
      "功": 730,
      "加": 731,
      "务": 732,
      "劢": 733,
      "劣": 734,
      "动": 735,
      "助": 736,
      "努": 737,
      "劫": 738,
      "劬": 739,
      "劭": 740,
      "励": 741,
      "劲": 742,
      "劳": 743,
      "劵": 744,
      "効": 745,
      "劻": 746,
      "劼": 747,
      "劾": 748,
      "势": 749,
      "勃": 750,
      "勅": 751,
      "勇": 752,
      "勉": 753,
      "勋": 754,
      "勍": 755,
      "勐": 756,
      "勒": 757,
      "勔": 758,
      "勖": 759,
      "勗": 760,
      "勘": 761,
      "募": 762,
      "勤": 763,
      "勰": 764,
      "勲": 765,
      "勷": 766,
      "勺": 767,
      "勾": 768,
      "勿": 769,
      "匀": 770,
      "匂": 771,
      "匄": 772,
      "包": 773,
      "匆": 774,
      "匈": 775,
      "匍": 776,
      "匏": 777,
      "匐": 778,
      "匕": 779,
      "化": 780,
      "北": 781,
      "匙": 782,
      "匜": 783,
      "匝": 784,
      "匠": 785,
      "匡": 786,
      "匣": 787,
      "匦": 788,
      "匪": 789,
      "匮": 790,
      "匹": 791,
      "区": 792,
      "医": 793,
      "匾": 794,
      "匿": 795,
      "十": 796,
      "千": 797,
      "卅": 798,
      "升": 799,
      "午": 800,
      "卉": 801,
      "半": 802,
      "卍": 803,
      "华": 804,
      "协": 805,
      "卐": 806,
      "卑": 807,
      "卒": 808,
      "卓": 809,
      "单": 810,
      "卖": 811,
      "南": 812,
      "単": 813,
      "博": 814,
      "卜": 815,
      "卞": 816,
      "卟": 817,
      "占": 818,
      "卡": 819,
      "卢": 820,
      "卣": 821,
      "卤": 822,
      "卦": 823,
      "卧": 824,
      "卫": 825,
      "卬": 826,
      "卮": 827,
      "卯": 828,
      "印": 829,
      "危": 830,
      "即": 831,
      "却": 832,
      "卵": 833,
      "卷": 834,
      "卸": 835,
      "卺": 836,
      "卿": 837,
      "厂": 838,
      "厄": 839,
      "厅": 840,
      "历": 841,
      "厉": 842,
      "压": 843,
      "厌": 844,
      "厍": 845,
      "厓": 846,
      "厔": 847,
      "厕": 848,
      "厘": 849,
      "厚": 850,
      "厝": 851,
      "原": 852,
      "厢": 853,
      "厣": 854,
      "厥": 855,
      "厦": 856,
      "厨": 857,
      "厩": 858,
      "厮": 859,
      "厶": 860,
      "去": 861,
      "县": 862,
      "叁": 863,
      "参": 864,
      "叆": 865,
      "又": 866,
      "叉": 867,
      "及": 868,
      "友": 869,
      "双": 870,
      "反": 871,
      "収": 872,
      "发": 873,
      "叒": 874,
      "叔": 875,
      "叕": 876,
      "取": 877,
      "受": 878,
      "变": 879,
      "叙": 880,
      "叛": 881,
      "叟": 882,
      "叠": 883,
      "叡": 884,
      "口": 885,
      "古": 886,
      "句": 887,
      "另": 888,
      "叨": 889,
      "叩": 890,
      "只": 891,
      "叫": 892,
      "召": 893,
      "叭": 894,
      "叮": 895,
      "可": 896,
      "台": 897,
      "叱": 898,
      "史": 899,
      "右": 900,
      "叵": 901,
      "叶": 902,
      "号": 903,
      "司": 904,
      "叹": 905,
      "叻": 906,
      "叼": 907,
      "叽": 908,
      "吁": 909,
      "吃": 910,
      "各": 911,
      "吆": 912,
      "合": 913,
      "吉": 914,
      "吊": 915,
      "吋": 916,
      "同": 917,
      "名": 918,
      "后": 919,
      "吏": 920,
      "吐": 921,
      "向": 922,
      "吒": 923,
      "吓": 924,
      "吔": 925,
      "吕": 926,
      "吖": 927,
      "吗": 928,
      "君": 929,
      "吝": 930,
      "吞": 931,
      "吟": 932,
      "吠": 933,
      "吡": 934,
      "否": 935,
      "吧": 936,
      "吨": 937,
      "吩": 938,
      "含": 939,
      "听": 940,
      "吭": 941,
      "吮": 942,
      "启": 943,
      "吱": 944,
      "吲": 945,
      "吴": 946,
      "吵": 947,
      "吸": 948,
      "吹": 949,
      "吻": 950,
      "吼": 951,
      "吽": 952,
      "吾": 953,
      "呀": 954,
      "呃": 955,
      "呆": 956,
      "呈": 957,
      "告": 958,
      "呋": 959,
      "呎": 960,
      "呐": 961,
      "呒": 962,
      "呓": 963,
      "呔": 964,
      "呕": 965,
      "呖": 966,
      "呗": 967,
      "员": 968,
      "呙": 969,
      "呛": 970,
      "呜": 971,
      "呢": 972,
      "呤": 973,
      "呦": 974,
      "周": 975,
      "呪": 976,
      "呱": 977,
      "呲": 978,
      "味": 979,
      "呴": 980,
      "呵": 981,
      "呶": 982,
      "呷": 983,
      "呸": 984,
      "呻": 985,
      "呼": 986,
      "命": 987,
      "咀": 988,
      "咁": 989,
      "咂": 990,
      "咄": 991,
      "咆": 992,
      "咋": 993,
      "和": 994,
      "咎": 995,
      "咏": 996,
      "咐": 997,
      "咒": 998,
      "咔": 999,
      "咕": 1000,
      "咖": 1001,
      "咗": 1002,
      "咘": 1003,
      "咙": 1004,
      "咚": 1005,
      "咛": 1006,
      "咝": 1007,
      "咣": 1008,
      "咤": 1009,
      "咥": 1010,
      "咦": 1011,
      "咧": 1012,
      "咨": 1013,
      "咩": 1014,
      "咪": 1015,
      "咫": 1016,
      "咬": 1017,
      "咭": 1018,
      "咯": 1019,
      "咱": 1020,
      "咲": 1021,
      "咳": 1022,
      "咸": 1023,
      "咻": 1024,
      "咽": 1025,
      "咿": 1026,
      "哀": 1027,
      "品": 1028,
      "哂": 1029,
      "哄": 1030,
      "哆": 1031,
      "哇": 1032,
      "哈": 1033,
      "哉": 1034,
      "哋": 1035,
      "哌": 1036,
      "响": 1037,
      "哎": 1038,
      "哏": 1039,
      "哐": 1040,
      "哑": 1041,
      "哒": 1042,
      "哓": 1043,
      "哔": 1044,
      "哕": 1045,
      "哗": 1046,
      "哙": 1047,
      "哚": 1048,
      "哝": 1049,
      "哞": 1050,
      "哟": 1051,
      "哥": 1052,
      "哦": 1053,
      "哧": 1054,
      "哨": 1055,
      "哩": 1056,
      "哪": 1057,
      "哭": 1058,
      "哮": 1059,
      "哲": 1060,
      "哺": 1061,
      "哼": 1062,
      "哽": 1063,
      "唁": 1064,
      "唆": 1065,
      "唇": 1066,
      "唉": 1067,
      "唎": 1068,
      "唏": 1069,
      "唐": 1070,
      "唑": 1071,
      "唔": 1072,
      "唛": 1073,
      "唠": 1074,
      "唤": 1075,
      "唧": 1076,
      "唬": 1077,
      "售": 1078,
      "唯": 1079,
      "唰": 1080,
      "唱": 1081,
      "唳": 1082,
      "唵": 1083,
      "唷": 1084,
      "唻": 1085,
      "唾": 1086,
      "啁": 1087,
      "啃": 1088,
      "啄": 1089,
      "商": 1090,
      "啉": 1091,
      "啊": 1092,
      "啐": 1093,
      "啕": 1094,
      "啖": 1095,
      "啗": 1096,
      "啜": 1097,
      "啡": 1098,
      "啣": 1099,
      "啤": 1100,
      "啥": 1101,
      "啦": 1102,
      "啧": 1103,
      "啪": 1104,
      "啫": 1105,
      "啬": 1106,
      "啭": 1107,
      "啮": 1108,
      "啰": 1109,
      "啲": 1110,
      "啵": 1111,
      "啶": 1112,
      "啷": 1113,
      "啸": 1114,
      "啻": 1115,
      "啼": 1116,
      "啾": 1117,
      "喀": 1118,
      "喁": 1119,
      "喂": 1120,
      "喃": 1121,
      "善": 1122,
      "喆": 1123,
      "喇": 1124,
      "喈": 1125,
      "喉": 1126,
      "喊": 1127,
      "喋": 1128,
      "喏": 1129,
      "喑": 1130,
      "喔": 1131,
      "喘": 1132,
      "喙": 1133,
      "喜": 1134,
      "喝": 1135,
      "喟": 1136,
      "喦": 1137,
      "喧": 1138,
      "喰": 1139,
      "喱": 1140,
      "喳": 1141,
      "喵": 1142,
      "営": 1143,
      "喷": 1144,
      "喹": 1145,
      "喺": 1146,
      "喻": 1147,
      "喽": 1148,
      "喾": 1149,
      "嗄": 1150,
      "嗅": 1151,
      "嗉": 1152,
      "嗌": 1153,
      "嗑": 1154,
      "嗒": 1155,
      "嗓": 1156,
      "嗔": 1157,
      "嗖": 1158,
      "嗜": 1159,
      "嗝": 1160,
      "嗞": 1161,
      "嗟": 1162,
      "嗡": 1163,
      "嗣": 1164,
      "嗤": 1165,
      "嗥": 1166,
      "嗦": 1167,
      "嗨": 1168,
      "嗪": 1169,
      "嗫": 1170,
      "嗬": 1171,
      "嗯": 1172,
      "嗲": 1173,
      "嗳": 1174,
      "嗵": 1175,
      "嗷": 1176,
      "嗽": 1177,
      "嗾": 1178,
      "嘀": 1179,
      "嘁": 1180,
      "嘅": 1181,
      "嘈": 1182,
      "嘉": 1183,
      "嘌": 1184,
      "嘎": 1185,
      "嘏": 1186,
      "嘘": 1187,
      "嘚": 1188,
      "嘛": 1189,
      "嘞": 1190,
      "嘟": 1191,
      "嘢": 1192,
      "嘣": 1193,
      "嘤": 1194,
      "嘧": 1195,
      "嘬": 1196,
      "嘭": 1197,
      "嘱": 1198,
      "嘲": 1199,
      "嘴": 1200,
      "嘶": 1201,
      "嘹": 1202,
      "嘻": 1203,
      "嘿": 1204,
      "噌": 1205,
      "噍": 1206,
      "噎": 1207,
      "噔": 1208,
      "噗": 1209,
      "噘": 1210,
      "噙": 1211,
      "噜": 1212,
      "噢": 1213,
      "噤": 1214,
      "器": 1215,
      "噩": 1216,
      "噪": 1217,
      "噫": 1218,
      "噬": 1219,
      "噱": 1220,
      "噶": 1221,
      "噻": 1222,
      "噼": 1223,
      "嚅": 1224,
      "嚎": 1225,
      "嚏": 1226,
      "嚒": 1227,
      "嚓": 1228,
      "嚗": 1229,
      "嚟": 1230,
      "嚣": 1231,
      "嚩": 1232,
      "嚭": 1233,
      "嚯": 1234,
      "嚷": 1235,
      "嚼": 1236,
      "囊": 1237,
      "囍": 1238,
      "囔": 1239,
      "囗": 1240,
      "囚": 1241,
      "四": 1242,
      "囝": 1243,
      "回": 1244,
      "囟": 1245,
      "因": 1246,
      "囡": 1247,
      "团": 1248,
      "団": 1249,
      "囤": 1250,
      "囧": 1251,
      "囫": 1252,
      "园": 1253,
      "囯": 1254,
      "困": 1255,
      "囱": 1256,
      "囲": 1257,
      "図": 1258,
      "围": 1259,
      "囵": 1260,
      "囷": 1261,
      "囹": 1262,
      "固": 1263,
      "国": 1264,
      "图": 1265,
      "囿": 1266,
      "圃": 1267,
      "圄": 1268,
      "圆": 1269,
      "圈": 1270,
      "圉": 1271,
      "圌": 1272,
      "圏": 1273,
      "圜": 1274,
      "土": 1275,
      "圣": 1276,
      "圧": 1277,
      "在": 1278,
      "圩": 1279,
      "圪": 1280,
      "圬": 1281,
      "圭": 1282,
      "圮": 1283,
      "圯": 1284,
      "地": 1285,
      "圳": 1286,
      "圹": 1287,
      "场": 1288,
      "圻": 1289,
      "圾": 1290,
      "址": 1291,
      "坂": 1292,
      "均": 1293,
      "坊": 1294,
      "坌": 1295,
      "坍": 1296,
      "坎": 1297,
      "坏": 1298,
      "坐": 1299,
      "坑": 1300,
      "块": 1301,
      "坚": 1302,
      "坛": 1303,
      "坜": 1304,
      "坝": 1305,
      "坞": 1306,
      "坟": 1307,
      "坠": 1308,
      "坡": 1309,
      "坤": 1310,
      "坦": 1311,
      "坨": 1312,
      "坩": 1313,
      "坪": 1314,
      "坬": 1315,
      "坭": 1316,
      "坯": 1317,
      "坳": 1318,
      "坷": 1319,
      "坻": 1320,
      "坼": 1321,
      "垂": 1322,
      "垃": 1323,
      "垄": 1324,
      "垅": 1325,
      "垆": 1326,
      "型": 1327,
      "垌": 1328,
      "垒": 1329,
      "垓": 1330,
      "垕": 1331,
      "垚": 1332,
      "垛": 1333,
      "垞": 1334,
      "垟": 1335,
      "垠": 1336,
      "垡": 1337,
      "垢": 1338,
      "垣": 1339,
      "垤": 1340,
      "垦": 1341,
      "垧": 1342,
      "垩": 1343,
      "垫": 1344,
      "垭": 1345,
      "垮": 1346,
      "垱": 1347,
      "垲": 1348,
      "垴": 1349,
      "垸": 1350,
      "埂": 1351,
      "埃": 1352,
      "埇": 1353,
      "埈": 1354,
      "埋": 1355,
      "埌": 1356,
      "城": 1357,
      "埏": 1358,
      "埒": 1359,
      "埔": 1360,
      "埕": 1361,
      "埗": 1362,
      "埙": 1363,
      "埚": 1364,
      "埜": 1365,
      "埝": 1366,
      "域": 1367,
      "埠": 1368,
      "埤": 1369,
      "埭": 1370,
      "埯": 1371,
      "埴": 1372,
      "埵": 1373,
      "埸": 1374,
      "培": 1375,
      "基": 1376,
      "埼": 1377,
      "埽": 1378,
      "堀": 1379,
      "堂": 1380,
      "堃": 1381,
      "堆": 1382,
      "堇": 1383,
      "堉": 1384,
      "堌": 1385,
      "堍": 1386,
      "堎": 1387,
      "堑": 1388,
      "堕": 1389,
      "堙": 1390,
      "堞": 1391,
      "堠": 1392,
      "堡": 1393,
      "堤": 1394,
      "堪": 1395,
      "堰": 1396,
      "堵": 1397,
      "堺": 1398,
      "堽": 1399,
      "塄": 1400,
      "塅": 1401,
      "塆": 1402,
      "塌": 1403,
      "塍": 1404,
      "塑": 1405,
      "塔": 1406,
      "塘": 1407,
      "塝": 1408,
      "塞": 1409,
      "塩": 1410,
      "填": 1411,
      "塬": 1412,
      "塭": 1413,
      "塱": 1414,
      "塽": 1415,
      "塾": 1416,
      "墀": 1417,
      "墁": 1418,
      "境": 1419,
      "墅": 1420,
      "墉": 1421,
      "墒": 1422,
      "墓": 1423,
      "墕": 1424,
      "増": 1425,
      "墘": 1426,
      "墙": 1427,
      "增": 1428,
      "墟": 1429,
      "墨": 1430,
      "墩": 1431,
      "墬": 1432,
      "壁": 1433,
      "壅": 1434,
      "壆": 1435,
      "壊": 1436,
      "壑": 1437,
      "壕": 1438,
      "壤": 1439,
      "士": 1440,
      "壬": 1441,
      "壮": 1442,
      "声": 1443,
      "売": 1444,
      "壳": 1445,
      "壶": 1446,
      "壸": 1447,
      "壹": 1448,
      "壻": 1449,
      "夂": 1450,
      "处": 1451,
      "备": 1452,
      "変": 1453,
      "复": 1454,
      "夏": 1455,
      "夐": 1456,
      "夔": 1457,
      "夕": 1458,
      "外": 1459,
      "夙": 1460,
      "多": 1461,
      "夜": 1462,
      "够": 1463,
      "夤": 1464,
      "大": 1465,
      "天": 1466,
      "太": 1467,
      "夫": 1468,
      "夬": 1469,
      "夭": 1470,
      "央": 1471,
      "夯": 1472,
      "失": 1473,
      "夲": 1474,
      "头": 1475,
      "夷": 1476,
      "夸": 1477,
      "夹": 1478,
      "夺": 1479,
      "夼": 1480,
      "奁": 1481,
      "奂": 1482,
      "奄": 1483,
      "奇": 1484,
      "奈": 1485,
      "奉": 1486,
      "奋": 1487,
      "奎": 1488,
      "奏": 1489,
      "契": 1490,
      "奔": 1491,
      "奕": 1492,
      "奖": 1493,
      "套": 1494,
      "奘": 1495,
      "奚": 1496,
      "奠": 1497,
      "奢": 1498,
      "奥": 1499,
      "奭": 1500,
      "女": 1501,
      "奴": 1502,
      "奶": 1503,
      "奸": 1504,
      "她": 1505,
      "好": 1506,
      "妁": 1507,
      "如": 1508,
      "妃": 1509,
      "妄": 1510,
      "妆": 1511,
      "妇": 1512,
      "妈": 1513,
      "妊": 1514,
      "妍": 1515,
      "妒": 1516,
      "妓": 1517,
      "妖": 1518,
      "妗": 1519,
      "妘": 1520,
      "妙": 1521,
      "妞": 1522,
      "妣": 1523,
      "妤": 1524,
      "妥": 1525,
      "妨": 1526,
      "妩": 1527,
      "妪": 1528,
      "妫": 1529,
      "妬": 1530,
      "妮": 1531,
      "妯": 1532,
      "妲": 1533,
      "妳": 1534,
      "妹": 1535,
      "妺": 1536,
      "妻": 1537,
      "妾": 1538,
      "姆": 1539,
      "姉": 1540,
      "姊": 1541,
      "始": 1542,
      "姐": 1543,
      "姑": 1544,
      "姒": 1545,
      "姓": 1546,
      "委": 1547,
      "姗": 1548,
      "姘": 1549,
      "姚": 1550,
      "姜": 1551,
      "姝": 1552,
      "姞": 1553,
      "姣": 1554,
      "姤": 1555,
      "姥": 1556,
      "姨": 1557,
      "姪": 1558,
      "姫": 1559,
      "姬": 1560,
      "姮": 1561,
      "姹": 1562,
      "姻": 1563,
      "姽": 1564,
      "姿": 1565,
      "威": 1566,
      "娃": 1567,
      "娄": 1568,
      "娅": 1569,
      "娆": 1570,
      "娇": 1571,
      "娈": 1572,
      "娉": 1573,
      "娌": 1574,
      "娑": 1575,
      "娓": 1576,
      "娘": 1577,
      "娜": 1578,
      "娟": 1579,
      "娠": 1580,
      "娣": 1581,
      "娥": 1582,
      "娩": 1583,
      "娭": 1584,
      "娱": 1585,
      "娲": 1586,
      "娴": 1587,
      "娶": 1588,
      "娼": 1589,
      "婀": 1590,
      "婆": 1591,
      "婉": 1592,
      "婊": 1593,
      "婕": 1594,
      "婚": 1595,
      "婠": 1596,
      "婢": 1597,
      "婧": 1598,
      "婪": 1599,
      "婳": 1600,
      "婴": 1601,
      "婵": 1602,
      "婶": 1603,
      "婷": 1604,
      "婺": 1605,
      "婼": 1606,
      "婿": 1607,
      "媒": 1608,
      "媚": 1609,
      "媛": 1610,
      "媜": 1611,
      "媞": 1612,
      "媪": 1613,
      "媲": 1614,
      "媳": 1615,
      "媵": 1616,
      "媸": 1617,
      "媾": 1618,
      "嫁": 1619,
      "嫂": 1620,
      "嫄": 1621,
      "嫉": 1622,
      "嫌": 1623,
      "嫑": 1624,
      "嫒": 1625,
      "嫔": 1626,
      "嫖": 1627,
      "嫘": 1628,
      "嫚": 1629,
      "嫠": 1630,
      "嫡": 1631,
      "嫣": 1632,
      "嫦": 1633,
      "嫩": 1634,
      "嫪": 1635,
      "嫫": 1636,
      "嫱": 1637,
      "嫲": 1638,
      "嬅": 1639,
      "嬉": 1640,
      "嬖": 1641,
      "嬗": 1642,
      "嬛": 1643,
      "嬢": 1644,
      "嬲": 1645,
      "嬴": 1646,
      "嬷": 1647,
      "嬿": 1648,
      "孀": 1649,
      "子": 1650,
      "孑": 1651,
      "孓": 1652,
      "孔": 1653,
      "孕": 1654,
      "孖": 1655,
      "字": 1656,
      "存": 1657,
      "孙": 1658,
      "孚": 1659,
      "孛": 1660,
      "孜": 1661,
      "孝": 1662,
      "孟": 1663,
      "孢": 1664,
      "季": 1665,
      "孤": 1666,
      "孥": 1667,
      "学": 1668,
      "孩": 1669,
      "孪": 1670,
      "孬": 1671,
      "孰": 1672,
      "孱": 1673,
      "孳": 1674,
      "孵": 1675,
      "孺": 1676,
      "孽": 1677,
      "宀": 1678,
      "宁": 1679,
      "它": 1680,
      "宄": 1681,
      "宅": 1682,
      "宇": 1683,
      "守": 1684,
      "安": 1685,
      "宋": 1686,
      "完": 1687,
      "宍": 1688,
      "宏": 1689,
      "宓": 1690,
      "宕": 1691,
      "宗": 1692,
      "官": 1693,
      "宙": 1694,
      "定": 1695,
      "宛": 1696,
      "宜": 1697,
      "宝": 1698,
      "实": 1699,
      "実": 1700,
      "宠": 1701,
      "审": 1702,
      "客": 1703,
      "宣": 1704,
      "室": 1705,
      "宥": 1706,
      "宦": 1707,
      "宪": 1708,
      "宫": 1709,
      "宬": 1710,
      "宰": 1711,
      "害": 1712,
      "宴": 1713,
      "宵": 1714,
      "家": 1715,
      "宸": 1716,
      "容": 1717,
      "宽": 1718,
      "宾": 1719,
      "宿": 1720,
      "寂": 1721,
      "寃": 1722,
      "寄": 1723,
      "寅": 1724,
      "密": 1725,
      "寇": 1726,
      "富": 1727,
      "寐": 1728,
      "寒": 1729,
      "寓": 1730,
      "寔": 1731,
      "寘": 1732,
      "寛": 1733,
      "寝": 1734,
      "寞": 1735,
      "察": 1736,
      "寡": 1737,
      "寤": 1738,
      "寥": 1739,
      "寨": 1740,
      "寮": 1741,
      "寯": 1742,
      "寰": 1743,
      "寳": 1744,
      "寸": 1745,
      "对": 1746,
      "寺": 1747,
      "寻": 1748,
      "导": 1749,
      "対": 1750,
      "寿": 1751,
      "封": 1752,
      "専": 1753,
      "射": 1754,
      "尅": 1755,
      "将": 1756,
      "尉": 1757,
      "尊": 1758,
      "小": 1759,
      "尐": 1760,
      "少": 1761,
      "尓": 1762,
      "尔": 1763,
      "尕": 1764,
      "尖": 1765,
      "尘": 1766,
      "尙": 1767,
      "尚": 1768,
      "尛": 1769,
      "尝": 1770,
      "尢": 1771,
      "尤": 1772,
      "尧": 1773,
      "尪": 1774,
      "尬": 1775,
      "就": 1776,
      "尴": 1777,
      "尸": 1778,
      "尹": 1779,
      "尺": 1780,
      "尻": 1781,
      "尼": 1782,
      "尽": 1783,
      "尾": 1784,
      "尿": 1785,
      "局": 1786,
      "屁": 1787,
      "层": 1788,
      "屃": 1789,
      "居": 1790,
      "屈": 1791,
      "屉": 1792,
      "届": 1793,
      "屋": 1794,
      "屌": 1795,
      "屎": 1796,
      "屏": 1797,
      "屐": 1798,
      "屑": 1799,
      "展": 1800,
      "屙": 1801,
      "属": 1802,
      "屠": 1803,
      "屡": 1804,
      "屣": 1805,
      "履": 1806,
      "屦": 1807,
      "屮": 1808,
      "屯": 1809,
      "山": 1810,
      "屹": 1811,
      "屺": 1812,
      "屾": 1813,
      "屿": 1814,
      "岀": 1815,
      "岁": 1816,
      "岂": 1817,
      "岈": 1818,
      "岌": 1819,
      "岐": 1820,
      "岑": 1821,
      "岔": 1822,
      "岕": 1823,
      "岖": 1824,
      "岗": 1825,
      "岘": 1826,
      "岙": 1827,
      "岚": 1828,
      "岛": 1829,
      "岜": 1830,
      "岞": 1831,
      "岢": 1832,
      "岣": 1833,
      "岩": 1834,
      "岫": 1835,
      "岬": 1836,
      "岭": 1837,
      "岱": 1838,
      "岳": 1839,
      "岵": 1840,
      "岷": 1841,
      "岸": 1842,
      "岽": 1843,
      "岿": 1844,
      "峁": 1845,
      "峄": 1846,
      "峇": 1847,
      "峋": 1848,
      "峒": 1849,
      "峙": 1850,
      "峠": 1851,
      "峡": 1852,
      "峣": 1853,
      "峤": 1854,
      "峥": 1855,
      "峦": 1856,
      "峨": 1857,
      "峩": 1858,
      "峪": 1859,
      "峭": 1860,
      "峰": 1861,
      "峻": 1862,
      "崀": 1863,
      "崁": 1864,
      "崂": 1865,
      "崃": 1866,
      "崄": 1867,
      "崆": 1868,
      "崇": 1869,
      "崎": 1870,
      "崐": 1871,
      "崔": 1872,
      "崖": 1873,
      "崚": 1874,
      "崛": 1875,
      "崞": 1876,
      "崟": 1877,
      "崤": 1878,
      "崦": 1879,
      "崧": 1880,
      "崩": 1881,
      "崭": 1882,
      "崮": 1883,
      "崴": 1884,
      "崽": 1885,
      "崾": 1886,
      "嵇": 1887,
      "嵊": 1888,
      "嵋": 1889,
      "嵌": 1890,
      "嵎": 1891,
      "嵒": 1892,
      "嵖": 1893,
      "嵘": 1894,
      "嵚": 1895,
      "嵛": 1896,
      "嵝": 1897,
      "嵩": 1898,
      "嵬": 1899,
      "嵯": 1900,
      "嵲": 1901,
      "嵴": 1902,
      "嶂": 1903,
      "嶋": 1904,
      "嶙": 1905,
      "嶝": 1906,
      "嶲": 1907,
      "嶷": 1908,
      "巂": 1909,
      "巅": 1910,
      "巉": 1911,
      "巍": 1912,
      "川": 1913,
      "州": 1914,
      "巡": 1915,
      "巢": 1916,
      "工": 1917,
      "左": 1918,
      "巧": 1919,
      "巨": 1920,
      "巩": 1921,
      "巫": 1922,
      "差": 1923,
      "巯": 1924,
      "己": 1925,
      "已": 1926,
      "巳": 1927,
      "巴": 1928,
      "巷": 1929,
      "巻": 1930,
      "巽": 1931,
      "巾": 1932,
      "巿": 1933,
      "币": 1934,
      "市": 1935,
      "布": 1936,
      "帅": 1937,
      "帆": 1938,
      "师": 1939,
      "希": 1940,
      "帏": 1941,
      "帐": 1942,
      "帑": 1943,
      "帔": 1944,
      "帕": 1945,
      "帖": 1946,
      "帘": 1947,
      "帙": 1948,
      "帚": 1949,
      "帛": 1950,
      "帜": 1951,
      "帝": 1952,
      "带": 1953,
      "帧": 1954,
      "席": 1955,
      "帮": 1956,
      "帯": 1957,
      "帰": 1958,
      "帷": 1959,
      "常": 1960,
      "帻": 1961,
      "帼": 1962,
      "帽": 1963,
      "幂": 1964,
      "幄": 1965,
      "幅": 1966,
      "幌": 1967,
      "幔": 1968,
      "幕": 1969,
      "幛": 1970,
      "幞": 1971,
      "幡": 1972,
      "幢": 1973,
      "干": 1974,
      "平": 1975,
      "年": 1976,
      "并": 1977,
      "幷": 1978,
      "幸": 1979,
      "幺": 1980,
      "幻": 1981,
      "幼": 1982,
      "幽": 1983,
      "广": 1984,
      "庀": 1985,
      "庁": 1986,
      "広": 1987,
      "庄": 1988,
      "庆": 1989,
      "庇": 1990,
      "床": 1991,
      "庋": 1992,
      "序": 1993,
      "庐": 1994,
      "庑": 1995,
      "库": 1996,
      "应": 1997,
      "底": 1998,
      "庖": 1999,
      "店": 2000,
      "庙": 2001,
      "庚": 2002,
      "府": 2003,
      "庞": 2004,
      "废": 2005,
      "庠": 2006,
      "庥": 2007,
      "度": 2008,
      "座": 2009,
      "庭": 2010,
      "庵": 2011,
      "庶": 2012,
      "康": 2013,
      "庸": 2014,
      "庹": 2015,
      "庾": 2016,
      "廆": 2017,
      "廉": 2018,
      "廊": 2019,
      "廋": 2020,
      "廌": 2021,
      "廍": 2022,
      "廑": 2023,
      "廒": 2024,
      "廓": 2025,
      "廖": 2026,
      "廙": 2027,
      "廛": 2028,
      "廨": 2029,
      "廪": 2030,
      "延": 2031,
      "廷": 2032,
      "建": 2033,
      "廻": 2034,
      "廼": 2035,
      "廿": 2036,
      "开": 2037,
      "弁": 2038,
      "异": 2039,
      "弃": 2040,
      "弄": 2041,
      "弇": 2042,
      "弈": 2043,
      "弊": 2044,
      "弋": 2045,
      "弍": 2046,
      "式": 2047,
      "弐": 2048,
      "弑": 2049,
      "弓": 2050,
      "引": 2051,
      "弗": 2052,
      "弘": 2053,
      "弛": 2054,
      "弟": 2055,
      "张": 2056,
      "弢": 2057,
      "弥": 2058,
      "弦": 2059,
      "弧": 2060,
      "弩": 2061,
      "弭": 2062,
      "弯": 2063,
      "弱": 2064,
      "弹": 2065,
      "强": 2066,
      "弼": 2067,
      "弾": 2068,
      "彀": 2069,
      "彊": 2070,
      "归": 2071,
      "当": 2072,
      "录": 2073,
      "彖": 2074,
      "彗": 2075,
      "彘": 2076,
      "彝": 2077,
      "彡": 2078,
      "形": 2079,
      "彤": 2080,
      "彦": 2081,
      "彧": 2082,
      "彩": 2083,
      "彪": 2084,
      "彬": 2085,
      "彭": 2086,
      "彰": 2087,
      "影": 2088,
      "彳": 2089,
      "彷": 2090,
      "役": 2091,
      "彻": 2092,
      "彼": 2093,
      "往": 2094,
      "征": 2095,
      "徂": 2096,
      "径": 2097,
      "待": 2098,
      "徇": 2099,
      "很": 2100,
      "徉": 2101,
      "徊": 2102,
      "律": 2103,
      "徐": 2104,
      "徒": 2105,
      "従": 2106,
      "徕": 2107,
      "得": 2108,
      "徘": 2109,
      "徙": 2110,
      "徜": 2111,
      "御": 2112,
      "徧": 2113,
      "徨": 2114,
      "循": 2115,
      "徬": 2116,
      "徭": 2117,
      "微": 2118,
      "徳": 2119,
      "徴": 2120,
      "徵": 2121,
      "德": 2122,
      "徼": 2123,
      "徽": 2124,
      "心": 2125,
      "忄": 2126,
      "必": 2127,
      "忆": 2128,
      "忉": 2129,
      "忌": 2130,
      "忍": 2131,
      "忏": 2132,
      "忐": 2133,
      "忑": 2134,
      "忒": 2135,
      "忖": 2136,
      "志": 2137,
      "忘": 2138,
      "忙": 2139,
      "応": 2140,
      "忝": 2141,
      "忞": 2142,
      "忠": 2143,
      "忡": 2144,
      "忤": 2145,
      "忧": 2146,
      "忪": 2147,
      "快": 2148,
      "忭": 2149,
      "忱": 2150,
      "念": 2151,
      "忸": 2152,
      "忻": 2153,
      "忽": 2154,
      "忾": 2155,
      "忿": 2156,
      "怀": 2157,
      "态": 2158,
      "怂": 2159,
      "怃": 2160,
      "怄": 2161,
      "怅": 2162,
      "怆": 2163,
      "怍": 2164,
      "怎": 2165,
      "怏": 2166,
      "怒": 2167,
      "怔": 2168,
      "怕": 2169,
      "怖": 2170,
      "怙": 2171,
      "怛": 2172,
      "怜": 2173,
      "思": 2174,
      "怠": 2175,
      "怡": 2176,
      "急": 2177,
      "怦": 2178,
      "性": 2179,
      "怨": 2180,
      "怩": 2181,
      "怪": 2182,
      "怫": 2183,
      "怯": 2184,
      "怵": 2185,
      "总": 2186,
      "怼": 2187,
      "怿": 2188,
      "恁": 2189,
      "恂": 2190,
      "恃": 2191,
      "恋": 2192,
      "恍": 2193,
      "恐": 2194,
      "恒": 2195,
      "恕": 2196,
      "恙": 2197,
      "恚": 2198,
      "恢": 2199,
      "恣": 2200,
      "恤": 2201,
      "恨": 2202,
      "恩": 2203,
      "恪": 2204,
      "恫": 2205,
      "恬": 2206,
      "恭": 2207,
      "息": 2208,
      "恰": 2209,
      "恳": 2210,
      "恵": 2211,
      "恶": 2212,
      "恸": 2213,
      "恹": 2214,
      "恺": 2215,
      "恻": 2216,
      "恼": 2217,
      "恽": 2218,
      "悃": 2219,
      "悄": 2220,
      "悉": 2221,
      "悌": 2222,
      "悍": 2223,
      "悒": 2224,
      "悔": 2225,
      "悖": 2226,
      "悚": 2227,
      "悛": 2228,
      "悝": 2229,
      "悟": 2230,
      "悠": 2231,
      "患": 2232,
      "悦": 2233,
      "您": 2234,
      "悩": 2235,
      "悪": 2236,
      "悫": 2237,
      "悬": 2238,
      "悭": 2239,
      "悯": 2240,
      "悰": 2241,
      "悱": 2242,
      "悲": 2243,
      "悴": 2244,
      "悸": 2245,
      "悻": 2246,
      "悼": 2247,
      "情": 2248,
      "惆": 2249,
      "惇": 2250,
      "惊": 2251,
      "惋": 2252,
      "惑": 2253,
      "惓": 2254,
      "惔": 2255,
      "惕": 2256,
      "惘": 2257,
      "惚": 2258,
      "惜": 2259,
      "惟": 2260,
      "惠": 2261,
      "惣": 2262,
      "惦": 2263,
      "惧": 2264,
      "惨": 2265,
      "惩": 2266,
      "惫": 2267,
      "惬": 2268,
      "惭": 2269,
      "惮": 2270,
      "惯": 2271,
      "惰": 2272,
      "想": 2273,
      "惴": 2274,
      "惶": 2275,
      "惹": 2276,
      "惺": 2277,
      "愀": 2278,
      "愁": 2279,
      "愆": 2280,
      "愈": 2281,
      "愉": 2282,
      "愍": 2283,
      "愎": 2284,
      "意": 2285,
      "愔": 2286,
      "愕": 2287,
      "愚": 2288,
      "感": 2289,
      "愠": 2290,
      "愣": 2291,
      "愤": 2292,
      "愦": 2293,
      "愧": 2294,
      "愫": 2295,
      "愬": 2296,
      "愿": 2297,
      "慈": 2298,
      "慊": 2299,
      "慌": 2300,
      "慎": 2301,
      "慑": 2302,
      "慕": 2303,
      "慜": 2304,
      "慝": 2305,
      "慢": 2306,
      "慥": 2307,
      "慧": 2308,
      "慨": 2309,
      "慰": 2310,
      "慵": 2311,
      "慷": 2312,
      "憋": 2313,
      "憌": 2314,
      "憍": 2315,
      "憎": 2316,
      "憓": 2317,
      "憔": 2318,
      "憙": 2319,
      "憟": 2320,
      "憧": 2321,
      "憨": 2322,
      "憩": 2323,
      "憪": 2324,
      "憬": 2325,
      "憭": 2326,
      "憯": 2327,
      "憾": 2328,
      "憿": 2329,
      "懂": 2330,
      "懈": 2331,
      "懊": 2332,
      "懋": 2333,
      "懐": 2334,
      "懑": 2335,
      "懒": 2336,
      "懔": 2337,
      "懦": 2338,
      "懵": 2339,
      "懽": 2340,
      "懿": 2341,
      "戆": 2342,
      "戈": 2343,
      "戊": 2344,
      "戋": 2345,
      "戌": 2346,
      "戍": 2347,
      "戎": 2348,
      "戏": 2349,
      "成": 2350,
      "我": 2351,
      "戒": 2352,
      "戕": 2353,
      "或": 2354,
      "戗": 2355,
      "战": 2356,
      "戚": 2357,
      "戛": 2358,
      "戟": 2359,
      "戡": 2360,
      "戢": 2361,
      "戦": 2362,
      "截": 2363,
      "戬": 2364,
      "戮": 2365,
      "戯": 2366,
      "戳": 2367,
      "戴": 2368,
      "户": 2369,
      "戸": 2370,
      "戻": 2371,
      "戽": 2372,
      "戾": 2373,
      "房": 2374,
      "所": 2375,
      "扁": 2376,
      "扃": 2377,
      "扆": 2378,
      "扇": 2379,
      "扈": 2380,
      "扉": 2381,
      "手": 2382,
      "扌": 2383,
      "才": 2384,
      "扎": 2385,
      "扑": 2386,
      "扒": 2387,
      "打": 2388,
      "扔": 2389,
      "托": 2390,
      "扛": 2391,
      "扞": 2392,
      "扣": 2393,
      "扦": 2394,
      "执": 2395,
      "扩": 2396,
      "扪": 2397,
      "扫": 2398,
      "扬": 2399,
      "扭": 2400,
      "扮": 2401,
      "扯": 2402,
      "扰": 2403,
      "扳": 2404,
      "扶": 2405,
      "批": 2406,
      "扼": 2407,
      "找": 2408,
      "承": 2409,
      "技": 2410,
      "抃": 2411,
      "抄": 2412,
      "抉": 2413,
      "把": 2414,
      "抑": 2415,
      "抒": 2416,
      "抓": 2417,
      "抔": 2418,
      "投": 2419,
      "抖": 2420,
      "抗": 2421,
      "折": 2422,
      "抚": 2423,
      "抛": 2424,
      "抜": 2425,
      "抟": 2426,
      "抠": 2427,
      "抡": 2428,
      "抢": 2429,
      "护": 2430,
      "报": 2431,
      "披": 2432,
      "抬": 2433,
      "抱": 2434,
      "抵": 2435,
      "抹": 2436,
      "抻": 2437,
      "押": 2438,
      "抽": 2439,
      "抿": 2440,
      "拂": 2441,
      "拄": 2442,
      "担": 2443,
      "拆": 2444,
      "拇": 2445,
      "拈": 2446,
      "拉": 2447,
      "拊": 2448,
      "拌": 2449,
      "拍": 2450,
      "拎": 2451,
      "拏": 2452,
      "拐": 2453,
      "拒": 2454,
      "拓": 2455,
      "拔": 2456,
      "拖": 2457,
      "拗": 2458,
      "拘": 2459,
      "拙": 2460,
      "拚": 2461,
      "招": 2462,
      "拜": 2463,
      "拟": 2464,
      "拢": 2465,
      "拣": 2466,
      "拥": 2467,
      "拦": 2468,
      "拧": 2469,
      "拨": 2470,
      "择": 2471,
      "括": 2472,
      "拭": 2473,
      "拮": 2474,
      "拯": 2475,
      "拱": 2476,
      "拳": 2477,
      "拴": 2478,
      "拶": 2479,
      "拷": 2480,
      "拼": 2481,
      "拽": 2482,
      "拾": 2483,
      "拿": 2484,
      "持": 2485,
      "挂": 2486,
      "指": 2487,
      "挈": 2488,
      "按": 2489,
      "挎": 2490,
      "挑": 2491,
      "挖": 2492,
      "挙": 2493,
      "挚": 2494,
      "挛": 2495,
      "挝": 2496,
      "挞": 2497,
      "挟": 2498,
      "挠": 2499,
      "挡": 2500,
      "挢": 2501,
      "挣": 2502,
      "挤": 2503,
      "挥": 2504,
      "挨": 2505,
      "挪": 2506,
      "挫": 2507,
      "振": 2508,
      "挲": 2509,
      "挹": 2510,
      "挺": 2511,
      "挽": 2512,
      "捂": 2513,
      "捃": 2514,
      "捅": 2515,
      "捆": 2516,
      "捉": 2517,
      "捋": 2518,
      "捌": 2519,
      "捍": 2520,
      "捎": 2521,
      "捏": 2522,
      "捐": 2523,
      "捕": 2524,
      "捜": 2525,
      "捞": 2526,
      "损": 2527,
      "捡": 2528,
      "换": 2529,
      "捣": 2530,
      "捧": 2531,
      "捩": 2532,
      "捭": 2533,
      "据": 2534,
      "捯": 2535,
      "捶": 2536,
      "捷": 2537,
      "捺": 2538,
      "捻": 2539,
      "掀": 2540,
      "掂": 2541,
      "掇": 2542,
      "授": 2543,
      "掉": 2544,
      "掊": 2545,
      "掌": 2546,
      "掎": 2547,
      "掏": 2548,
      "掐": 2549,
      "排": 2550,
      "掖": 2551,
      "掘": 2552,
      "掠": 2553,
      "探": 2554,
      "掣": 2555,
      "掤": 2556,
      "接": 2557,
      "控": 2558,
      "推": 2559,
      "掩": 2560,
      "措": 2561,
      "掬": 2562,
      "掮": 2563,
      "掰": 2564,
      "掲": 2565,
      "掳": 2566,
      "掴": 2567,
      "掷": 2568,
      "掸": 2569,
      "掺": 2570,
      "掼": 2571,
      "掾": 2572,
      "揄": 2573,
      "揆": 2574,
      "揉": 2575,
      "揍": 2576,
      "描": 2577,
      "提": 2578,
      "插": 2579,
      "揖": 2580,
      "揠": 2581,
      "握": 2582,
      "揣": 2583,
      "揩": 2584,
      "揪": 2585,
      "揭": 2586,
      "揲": 2587,
      "援": 2588,
      "揶": 2589,
      "揸": 2590,
      "揺": 2591,
      "揽": 2592,
      "揾": 2593,
      "揿": 2594,
      "搀": 2595,
      "搁": 2596,
      "搂": 2597,
      "搅": 2598,
      "搌": 2599,
      "搏": 2600,
      "搐": 2601,
      "搓": 2602,
      "搔": 2603,
      "搜": 2604,
      "搞": 2605,
      "搠": 2606,
      "搡": 2607,
      "搢": 2608,
      "搦": 2609,
      "搪": 2610,
      "搬": 2611,
      "搭": 2612,
      "搴": 2613,
      "携": 2614,
      "搽": 2615,
      "摁": 2616,
      "摄": 2617,
      "摅": 2618,
      "摆": 2619,
      "摇": 2620,
      "摈": 2621,
      "摊": 2622,
      "摒": 2623,
      "摔": 2624,
      "摘": 2625,
      "摛": 2626,
      "摞": 2627,
      "摧": 2628,
      "摨": 2629,
      "摩": 2630,
      "摭": 2631,
      "摮": 2632,
      "摰": 2633,
      "摸": 2634,
      "摹": 2635,
      "摽": 2636,
      "撂": 2637,
      "撃": 2638,
      "撄": 2639,
      "撅": 2640,
      "撇": 2641,
      "撌": 2642,
      "撑": 2643,
      "撒": 2644,
      "撕": 2645,
      "撖": 2646,
      "撘": 2647,
      "撙": 2648,
      "撞": 2649,
      "撠": 2650,
      "撤": 2651,
      "撩": 2652,
      "撬": 2653,
      "播": 2654,
      "撮": 2655,
      "撰": 2656,
      "撱": 2657,
      "撵": 2658,
      "撷": 2659,
      "撸": 2660,
      "撺": 2661,
      "撼": 2662,
      "擀": 2663,
      "擂": 2664,
      "擃": 2665,
      "擅": 2666,
      "操": 2667,
      "擎": 2668,
      "擐": 2669,
      "擒": 2670,
      "擘": 2671,
      "擞": 2672,
      "擢": 2673,
      "擤": 2674,
      "擦": 2675,
      "擿": 2676,
      "攀": 2677,
      "攒": 2678,
      "攘": 2679,
      "攞": 2680,
      "攥": 2681,
      "攫": 2682,
      "支": 2683,
      "收": 2684,
      "攸": 2685,
      "改": 2686,
      "攻": 2687,
      "放": 2688,
      "政": 2689,
      "故": 2690,
      "效": 2691,
      "敌": 2692,
      "敍": 2693,
      "敏": 2694,
      "救": 2695,
      "敔": 2696,
      "敕": 2697,
      "敖": 2698,
      "教": 2699,
      "敛": 2700,
      "敝": 2701,
      "敞": 2702,
      "敢": 2703,
      "散": 2704,
      "敦": 2705,
      "敬": 2706,
      "数": 2707,
      "敲": 2708,
      "整": 2709,
      "敶": 2710,
      "敷": 2711,
      "敹": 2712,
      "敺": 2713,
      "文": 2714,
      "斉": 2715,
      "斋": 2716,
      "斌": 2717,
      "斎": 2718,
      "斐": 2719,
      "斑": 2720,
      "斓": 2721,
      "斗": 2722,
      "料": 2723,
      "斛": 2724,
      "斜": 2725,
      "斝": 2726,
      "斟": 2727,
      "斠": 2728,
      "斡": 2729,
      "斤": 2730,
      "斥": 2731,
      "斧": 2732,
      "斩": 2733,
      "斫": 2734,
      "断": 2735,
      "斯": 2736,
      "新": 2737,
      "斲": 2738,
      "方": 2739,
      "於": 2740,
      "施": 2741,
      "旁": 2742,
      "旃": 2743,
      "旄": 2744,
      "旅": 2745,
      "旆": 2746,
      "旋": 2747,
      "旌": 2748,
      "旎": 2749,
      "族": 2750,
      "旒": 2751,
      "旖": 2752,
      "旗": 2753,
      "旛": 2754,
      "无": 2755,
      "既": 2756,
      "日": 2757,
      "旦": 2758,
      "旧": 2759,
      "旨": 2760,
      "早": 2761,
      "旬": 2762,
      "旭": 2763,
      "旮": 2764,
      "旯": 2765,
      "旰": 2766,
      "旱": 2767,
      "旳": 2768,
      "时": 2769,
      "旷": 2770,
      "旸": 2771,
      "旺": 2772,
      "旻": 2773,
      "旼": 2774,
      "昀": 2775,
      "昂": 2776,
      "昃": 2777,
      "昆": 2778,
      "昉": 2779,
      "昊": 2780,
      "昌": 2781,
      "明": 2782,
      "昏": 2783,
      "易": 2784,
      "昔": 2785,
      "昕": 2786,
      "昙": 2787,
      "昚": 2788,
      "昝": 2789,
      "星": 2790,
      "映": 2791,
      "春": 2792,
      "昧": 2793,
      "昨": 2794,
      "昪": 2795,
      "昫": 2796,
      "昭": 2797,
      "是": 2798,
      "昰": 2799,
      "昱": 2800,
      "昳": 2801,
      "昴": 2802,
      "昵": 2803,
      "昶": 2804,
      "昺": 2805,
      "昼": 2806,
      "显": 2807,
      "晁": 2808,
      "晃": 2809,
      "晄": 2810,
      "晋": 2811,
      "晌": 2812,
      "晏": 2813,
      "晒": 2814,
      "晓": 2815,
      "晔": 2816,
      "晕": 2817,
      "晖": 2818,
      "晗": 2819,
      "晚": 2820,
      "晞": 2821,
      "晟": 2822,
      "晡": 2823,
      "晤": 2824,
      "晦": 2825,
      "晧": 2826,
      "晨": 2827,
      "晩": 2828,
      "普": 2829,
      "景": 2830,
      "晰": 2831,
      "晳": 2832,
      "晴": 2833,
      "晶": 2834,
      "晷": 2835,
      "智": 2836,
      "晾": 2837,
      "暁": 2838,
      "暂": 2839,
      "暄": 2840,
      "暇": 2841,
      "暌": 2842,
      "暐": 2843,
      "暑": 2844,
      "暖": 2845,
      "暗": 2846,
      "暝": 2847,
      "暠": 2848,
      "暧": 2849,
      "暨": 2850,
      "暮": 2851,
      "暱": 2852,
      "暴": 2853,
      "暸": 2854,
      "暹": 2855,
      "暻": 2856,
      "暾": 2857,
      "曈": 2858,
      "曌": 2859,
      "曙": 2860,
      "曛": 2861,
      "曜": 2862,
      "曝": 2863,
      "曦": 2864,
      "曩": 2865,
      "曰": 2866,
      "曲": 2867,
      "曳": 2868,
      "更": 2869,
      "曷": 2870,
      "曹": 2871,
      "曼": 2872,
      "曽": 2873,
      "曾": 2874,
      "替": 2875,
      "最": 2876,
      "月": 2877,
      "有": 2878,
      "朊": 2879,
      "朋": 2880,
      "服": 2881,
      "朏": 2882,
      "朐": 2883,
      "朓": 2884,
      "朔": 2885,
      "朕": 2886,
      "朗": 2887,
      "望": 2888,
      "朝": 2889,
      "期": 2890,
      "朦": 2891,
      "木": 2892,
      "未": 2893,
      "末": 2894,
      "本": 2895,
      "札": 2896,
      "术": 2897,
      "朱": 2898,
      "朴": 2899,
      "朵": 2900,
      "机": 2901,
      "朽": 2902,
      "杀": 2903,
      "杂": 2904,
      "权": 2905,
      "杆": 2906,
      "杈": 2907,
      "杉": 2908,
      "杌": 2909,
      "李": 2910,
      "杏": 2911,
      "材": 2912,
      "村": 2913,
      "杓": 2914,
      "杖": 2915,
      "杜": 2916,
      "杞": 2917,
      "束": 2918,
      "杠": 2919,
      "条": 2920,
      "来": 2921,
      "杧": 2922,
      "杨": 2923,
      "杩": 2924,
      "杪": 2925,
      "杭": 2926,
      "杯": 2927,
      "杰": 2928,
      "杲": 2929,
      "杳": 2930,
      "杵": 2931,
      "杷": 2932,
      "杼": 2933,
      "松": 2934,
      "板": 2935,
      "极": 2936,
      "构": 2937,
      "枇": 2938,
      "枉": 2939,
      "枋": 2940,
      "析": 2941,
      "枕": 2942,
      "林": 2943,
      "枚": 2944,
      "果": 2945,
      "枝": 2946,
      "枞": 2947,
      "枢": 2948,
      "枣": 2949,
      "枥": 2950,
      "枧": 2951,
      "枨": 2952,
      "枪": 2953,
      "枫": 2954,
      "枭": 2955,
      "枯": 2956,
      "枰": 2957,
      "枳": 2958,
      "枵": 2959,
      "架": 2960,
      "枷": 2961,
      "枸": 2962,
      "枹": 2963,
      "柁": 2964,
      "柃": 2965,
      "柄": 2966,
      "柊": 2967,
      "柏": 2968,
      "某": 2969,
      "柑": 2970,
      "柒": 2971,
      "染": 2972,
      "柔": 2973,
      "柘": 2974,
      "柚": 2975,
      "柜": 2976,
      "柝": 2977,
      "柞": 2978,
      "柟": 2979,
      "柠": 2980,
      "柢": 2981,
      "查": 2982,
      "柩": 2983,
      "柬": 2984,
      "柯": 2985,
      "柰": 2986,
      "柱": 2987,
      "柳": 2988,
      "柴": 2989,
      "柷": 2990,
      "柽": 2991,
      "柾": 2992,
      "柿": 2993,
      "栀": 2994,
      "栃": 2995,
      "栄": 2996,
      "栅": 2997,
      "标": 2998,
      "栈": 2999,
      "栉": 3000,
      "栊": 3001,
      "栋": 3002,
      "栌": 3003,
      "栎": 3004,
      "栏": 3005,
      "树": 3006,
      "栒": 3007,
      "栓": 3008,
      "栖": 3009,
      "栗": 3010,
      "栝": 3011,
      "栞": 3012,
      "栟": 3013,
      "校": 3014,
      "栢": 3015,
      "栩": 3016,
      "株": 3017,
      "栱": 3018,
      "栲": 3019,
      "栳": 3020,
      "栴": 3021,
      "样": 3022,
      "核": 3023,
      "根": 3024,
      "栻": 3025,
      "格": 3026,
      "栽": 3027,
      "栾": 3028,
      "栿": 3029,
      "桀": 3030,
      "桁": 3031,
      "桂": 3032,
      "桃": 3033,
      "桄": 3034,
      "桅": 3035,
      "框": 3036,
      "案": 3037,
      "桉": 3038,
      "桌": 3039,
      "桎": 3040,
      "桐": 3041,
      "桑": 3042,
      "桓": 3043,
      "桔": 3044,
      "桕": 3045,
      "桜": 3046,
      "桠": 3047,
      "桡": 3048,
      "桢": 3049,
      "档": 3050,
      "桤": 3051,
      "桥": 3052,
      "桦": 3053,
      "桧": 3054,
      "桨": 3055,
      "桩": 3056,
      "桫": 3057,
      "桴": 3058,
      "桶": 3059,
      "桷": 3060,
      "梁": 3061,
      "梃": 3062,
      "梅": 3063,
      "梆": 3064,
      "梓": 3065,
      "梗": 3066,
      "梢": 3067,
      "梦": 3068,
      "梧": 3069,
      "梨": 3070,
      "梭": 3071,
      "梯": 3072,
      "械": 3073,
      "梳": 3074,
      "梵": 3075,
      "梶": 3076,
      "梼": 3077,
      "梿": 3078,
      "检": 3079,
      "棂": 3080,
      "棈": 3081,
      "棉": 3082,
      "棋": 3083,
      "棍": 3084,
      "棐": 3085,
      "棒": 3086,
      "棕": 3087,
      "棘": 3088,
      "棚": 3089,
      "棠": 3090,
      "棣": 3091,
      "棨": 3092,
      "棫": 3093,
      "森": 3094,
      "棰": 3095,
      "棱": 3096,
      "棵": 3097,
      "棹": 3098,
      "棺": 3099,
      "棻": 3100,
      "棼": 3101,
      "椀": 3102,
      "椁": 3103,
      "椅": 3104,
      "椋": 3105,
      "植": 3106,
      "椎": 3107,
      "椐": 3108,
      "椒": 3109,
      "検": 3110,
      "椟": 3111,
      "椠": 3112,
      "椤": 3113,
      "椪": 3114,
      "椭": 3115,
      "椰": 3116,
      "椴": 3117,
      "椹": 3118,
      "椽": 3119,
      "椿": 3120,
      "楂": 3121,
      "楔": 3122,
      "楗": 3123,
      "楙": 3124,
      "楚": 3125,
      "楛": 3126,
      "楝": 3127,
      "楞": 3128,
      "楠": 3129,
      "楢": 3130,
      "楣": 3131,
      "楤": 3132,
      "楦": 3133,
      "楩": 3134,
      "楫": 3135,
      "楮": 3136,
      "楯": 3137,
      "楷": 3138,
      "楸": 3139,
      "楹": 3140,
      "楼": 3141,
      "楽": 3142,
      "概": 3143,
      "榄": 3144,
      "榆": 3145,
      "榇": 3146,
      "榈": 3147,
      "榉": 3148,
      "榊": 3149,
      "榎": 3150,
      "榔": 3151,
      "榕": 3152,
      "榖": 3153,
      "榛": 3154,
      "榜": 3155,
      "榧": 3156,
      "榨": 3157,
      "榫": 3158,
      "榭": 3159,
      "榱": 3160,
      "榴": 3161,
      "榷": 3162,
      "榻": 3163,
      "榼": 3164,
      "槁": 3165,
      "槃": 3166,
      "槊": 3167,
      "槌": 3168,
      "槎": 3169,
      "槐": 3170,
      "槑": 3171,
      "槔": 3172,
      "様": 3173,
      "槙": 3174,
      "槚": 3175,
      "槛": 3176,
      "槟": 3177,
      "槠": 3178,
      "槭": 3179,
      "槲": 3180,
      "槻": 3181,
      "槽": 3182,
      "槿": 3183,
      "樊": 3184,
      "樋": 3185,
      "樗": 3186,
      "樘": 3187,
      "樛": 3188,
      "樟": 3189,
      "模": 3190,
      "樨": 3191,
      "権": 3192,
      "横": 3193,
      "樯": 3194,
      "樱": 3195,
      "樵": 3196,
      "樽": 3197,
      "樾": 3198,
      "橄": 3199,
      "橇": 3200,
      "橐": 3201,
      "橘": 3202,
      "橙": 3203,
      "橛": 3204,
      "橡": 3205,
      "橦": 3206,
      "橱": 3207,
      "橹": 3208,
      "橼": 3209,
      "檀": 3210,
      "檄": 3211,
      "檎": 3212,
      "檐": 3213,
      "檗": 3214,
      "檠": 3215,
      "檩": 3216,
      "檫": 3217,
      "檬": 3218,
      "櫂": 3219,
      "櫆": 3220,
      "欠": 3221,
      "次": 3222,
      "欢": 3223,
      "欣": 3224,
      "欤": 3225,
      "欧": 3226,
      "欲": 3227,
      "欷": 3228,
      "欸": 3229,
      "欹": 3230,
      "欺": 3231,
      "欻": 3232,
      "款": 3233,
      "歃": 3234,
      "歆": 3235,
      "歇": 3236,
      "歉": 3237,
      "歌": 3238,
      "歔": 3239,
      "歙": 3240,
      "止": 3241,
      "正": 3242,
      "此": 3243,
      "步": 3244,
      "武": 3245,
      "歧": 3246,
      "歩": 3247,
      "歪": 3248,
      "歳": 3249,
      "歴": 3250,
      "歹": 3251,
      "死": 3252,
      "歼": 3253,
      "殁": 3254,
      "殂": 3255,
      "殃": 3256,
      "殄": 3257,
      "殆": 3258,
      "殇": 3259,
      "殉": 3260,
      "殊": 3261,
      "残": 3262,
      "殍": 3263,
      "殑": 3264,
      "殒": 3265,
      "殓": 3266,
      "殖": 3267,
      "殚": 3268,
      "殛": 3269,
      "殡": 3270,
      "殪": 3271,
      "殳": 3272,
      "殴": 3273,
      "段": 3274,
      "殷": 3275,
      "殿": 3276,
      "毁": 3277,
      "毂": 3278,
      "毅": 3279,
      "毋": 3280,
      "毌": 3281,
      "母": 3282,
      "毎": 3283,
      "每": 3284,
      "毐": 3285,
      "毑": 3286,
      "毒": 3287,
      "毓": 3288,
      "比": 3289,
      "毕": 3290,
      "毖": 3291,
      "毗": 3292,
      "毘": 3293,
      "毙": 3294,
      "毛": 3295,
      "毡": 3296,
      "毫": 3297,
      "毬": 3298,
      "毯": 3299,
      "毳": 3300,
      "毵": 3301,
      "毽": 3302,
      "氅": 3303,
      "氆": 3304,
      "氇": 3305,
      "氏": 3306,
      "氐": 3307,
      "民": 3308,
      "氓": 3309,
      "气": 3310,
      "氖": 3311,
      "気": 3312,
      "氘": 3313,
      "氙": 3314,
      "氚": 3315,
      "氛": 3316,
      "氟": 3317,
      "氡": 3318,
      "氢": 3319,
      "氤": 3320,
      "氦": 3321,
      "氧": 3322,
      "氨": 3323,
      "氩": 3324,
      "氪": 3325,
      "氮": 3326,
      "氯": 3327,
      "氰": 3328,
      "氲": 3329,
      "水": 3330,
      "氵": 3331,
      "氷": 3332,
      "永": 3333,
      "氹": 3334,
      "氽": 3335,
      "氿": 3336,
      "汀": 3337,
      "汁": 3338,
      "求": 3339,
      "汆": 3340,
      "汇": 3341,
      "汉": 3342,
      "汊": 3343,
      "汐": 3344,
      "汕": 3345,
      "汗": 3346,
      "汚": 3347,
      "汛": 3348,
      "汜": 3349,
      "汝": 3350,
      "汞": 3351,
      "江": 3352,
      "池": 3353,
      "污": 3354,
      "汤": 3355,
      "汧": 3356,
      "汨": 3357,
      "汩": 3358,
      "汪": 3359,
      "汭": 3360,
      "汰": 3361,
      "汲": 3362,
      "汴": 3363,
      "汶": 3364,
      "汹": 3365,
      "汽": 3366,
      "汾": 3367,
      "沁": 3368,
      "沂": 3369,
      "沃": 3370,
      "沄": 3371,
      "沅": 3372,
      "沆": 3373,
      "沈": 3374,
      "沉": 3375,
      "沌": 3376,
      "沏": 3377,
      "沐": 3378,
      "沓": 3379,
      "沔": 3380,
      "沙": 3381,
      "沚": 3382,
      "沛": 3383,
      "沟": 3384,
      "没": 3385,
      "沢": 3386,
      "沣": 3387,
      "沤": 3388,
      "沥": 3389,
      "沦": 3390,
      "沧": 3391,
      "沨": 3392,
      "沩": 3393,
      "沪": 3394,
      "沫": 3395,
      "沬": 3396,
      "沭": 3397,
      "沮": 3398,
      "沱": 3399,
      "河": 3400,
      "沸": 3401,
      "油": 3402,
      "治": 3403,
      "沼": 3404,
      "沽": 3405,
      "沾": 3406,
      "沿": 3407,
      "泂": 3408,
      "泄": 3409,
      "泅": 3410,
      "泇": 3411,
      "泉": 3412,
      "泊": 3413,
      "泌": 3414,
      "泐": 3415,
      "泓": 3416,
      "泔": 3417,
      "法": 3418,
      "泖": 3419,
      "泗": 3420,
      "泚": 3421,
      "泛": 3422,
      "泞": 3423,
      "泠": 3424,
      "泡": 3425,
      "波": 3426,
      "泣": 3427,
      "泥": 3428,
      "注": 3429,
      "泪": 3430,
      "泫": 3431,
      "泮": 3432,
      "泯": 3433,
      "泰": 3434,
      "泱": 3435,
      "泳": 3436,
      "泵": 3437,
      "泷": 3438,
      "泸": 3439,
      "泺": 3440,
      "泻": 3441,
      "泼": 3442,
      "泽": 3443,
      "泾": 3444,
      "洁": 3445,
      "洄": 3446,
      "洇": 3447,
      "洈": 3448,
      "洋": 3449,
      "洌": 3450,
      "洎": 3451,
      "洑": 3452,
      "洒": 3453,
      "洗": 3454,
      "洙": 3455,
      "洛": 3456,
      "洞": 3457,
      "洣": 3458,
      "津": 3459,
      "洧": 3460,
      "洨": 3461,
      "洪": 3462,
      "洫": 3463,
      "洮": 3464,
      "洱": 3465,
      "洲": 3466,
      "洳": 3467,
      "洵": 3468,
      "洸": 3469,
      "洹": 3470,
      "洺": 3471,
      "活": 3472,
      "洼": 3473,
      "洽": 3474,
      "派": 3475,
      "流": 3476,
      "浃": 3477,
      "浄": 3478,
      "浅": 3479,
      "浆": 3480,
      "浇": 3481,
      "浈": 3482,
      "浉": 3483,
      "浊": 3484,
      "测": 3485,
      "浍": 3486,
      "济": 3487,
      "浏": 3488,
      "浐": 3489,
      "浑": 3490,
      "浒": 3491,
      "浓": 3492,
      "浔": 3493,
      "浙": 3494,
      "浚": 3495,
      "浜": 3496,
      "浞": 3497,
      "浠": 3498,
      "浡": 3499,
      "浣": 3500,
      "浥": 3501,
      "浦": 3502,
      "浩": 3503,
      "浪": 3504,
      "浬": 3505,
      "浮": 3506,
      "浯": 3507,
      "浴": 3508,
      "海": 3509,
      "浸": 3510,
      "浼": 3511,
      "涂": 3512,
      "涅": 3513,
      "消": 3514,
      "涉": 3515,
      "涌": 3516,
      "涎": 3517,
      "涑": 3518,
      "涓": 3519,
      "涔": 3520,
      "涕": 3521,
      "涘": 3522,
      "涙": 3523,
      "涛": 3524,
      "涝": 3525,
      "涞": 3526,
      "涟": 3527,
      "涠": 3528,
      "涡": 3529,
      "涣": 3530,
      "涤": 3531,
      "润": 3532,
      "涧": 3533,
      "涨": 3534,
      "涩": 3535,
      "涪": 3536,
      "涮": 3537,
      "涯": 3538,
      "液": 3539,
      "涴": 3540,
      "涵": 3541,
      "涸": 3542,
      "涿": 3543,
      "淀": 3544,
      "淄": 3545,
      "淅": 3546,
      "淆": 3547,
      "淇": 3548,
      "淋": 3549,
      "淌": 3550,
      "淏": 3551,
      "淑": 3552,
      "淖": 3553,
      "淘": 3554,
      "淙": 3555,
      "淛": 3556,
      "淝": 3557,
      "淞": 3558,
      "淠": 3559,
      "淡": 3560,
      "淤": 3561,
      "淦": 3562,
      "淫": 3563,
      "淬": 3564,
      "淮": 3565,
      "淯": 3566,
      "深": 3567,
      "淳": 3568,
      "混": 3569,
      "淸": 3570,
      "淹": 3571,
      "添": 3572,
      "淼": 3573,
      "清": 3574,
      "済": 3575,
      "渉": 3576,
      "渊": 3577,
      "渋": 3578,
      "渌": 3579,
      "渍": 3580,
      "渎": 3581,
      "渐": 3582,
      "渑": 3583,
      "渔": 3584,
      "渕": 3585,
      "渖": 3586,
      "渗": 3587,
      "渚": 3588,
      "渝": 3589,
      "渟": 3590,
      "渠": 3591,
      "渡": 3592,
      "渣": 3593,
      "渤": 3594,
      "渥": 3595,
      "温": 3596,
      "渫": 3597,
      "渭": 3598,
      "港": 3599,
      "渲": 3600,
      "渴": 3601,
      "游": 3602,
      "渺": 3603,
      "渼": 3604,
      "湃": 3605,
      "湄": 3606,
      "湉": 3607,
      "湍": 3608,
      "湎": 3609,
      "湓": 3610,
      "湔": 3611,
      "湖": 3612,
      "湘": 3613,
      "湛": 3614,
      "湜": 3615,
      "湟": 3616,
      "湣": 3617,
      "湫": 3618,
      "湮": 3619,
      "湲": 3620,
      "湳": 3621,
      "湴": 3622,
      "湾": 3623,
      "湿": 3624,
      "満": 3625,
      "溁": 3626,
      "溃": 3627,
      "溅": 3628,
      "溆": 3629,
      "溇": 3630,
      "溉": 3631,
      "溍": 3632,
      "溏": 3633,
      "源": 3634,
      "溘": 3635,
      "溜": 3636,
      "溟": 3637,
      "溢": 3638,
      "溥": 3639,
      "溦": 3640,
      "溧": 3641,
      "溪": 3642,
      "溯": 3643,
      "溱": 3644,
      "溲": 3645,
      "溴": 3646,
      "溶": 3647,
      "溷": 3648,
      "溺": 3649,
      "溽": 3650,
      "滁": 3651,
      "滂": 3652,
      "滃": 3653,
      "滆": 3654,
      "滇": 3655,
      "滉": 3656,
      "滋": 3657,
      "滍": 3658,
      "滏": 3659,
      "滑": 3660,
      "滓": 3661,
      "滔": 3662,
      "滕": 3663,
      "滗": 3664,
      "滘": 3665,
      "滚": 3666,
      "滝": 3667,
      "滞": 3668,
      "滟": 3669,
      "滠": 3670,
      "满": 3671,
      "滢": 3672,
      "滤": 3673,
      "滥": 3674,
      "滦": 3675,
      "滨": 3676,
      "滩": 3677,
      "滴": 3678,
      "滹": 3679,
      "漂": 3680,
      "漆": 3681,
      "漈": 3682,
      "漉": 3683,
      "漏": 3684,
      "漓": 3685,
      "演": 3686,
      "漕": 3687,
      "漖": 3688,
      "漙": 3689,
      "漠": 3690,
      "漩": 3691,
      "漪": 3692,
      "漫": 3693,
      "漭": 3694,
      "漯": 3695,
      "漱": 3696,
      "漳": 3697,
      "漶": 3698,
      "漷": 3699,
      "漾": 3700,
      "潆": 3701,
      "潇": 3702,
      "潋": 3703,
      "潍": 3704,
      "潏": 3705,
      "潘": 3706,
      "潜": 3707,
      "潞": 3708,
      "潟": 3709,
      "潢": 3710,
      "潦": 3711,
      "潭": 3712,
      "潮": 3713,
      "潲": 3714,
      "潴": 3715,
      "潸": 3716,
      "潺": 3717,
      "潼": 3718,
      "澂": 3719,
      "澄": 3720,
      "澈": 3721,
      "澉": 3722,
      "澌": 3723,
      "澍": 3724,
      "澎": 3725,
      "澔": 3726,
      "澜": 3727,
      "澡": 3728,
      "澥": 3729,
      "澧": 3730,
      "澪": 3731,
      "澳": 3732,
      "澶": 3733,
      "澹": 3734,
      "激": 3735,
      "濂": 3736,
      "濉": 3737,
      "濊": 3738,
      "濑": 3739,
      "濒": 3740,
      "濞": 3741,
      "濠": 3742,
      "濡": 3743,
      "濩": 3744,
      "濬": 3745,
      "濮": 3746,
      "濯": 3747,
      "瀍": 3748,
      "瀑": 3749,
      "瀚": 3750,
      "瀛": 3751,
      "瀞": 3752,
      "瀣": 3753,
      "瀬": 3754,
      "瀹": 3755,
      "瀼": 3756,
      "灌": 3757,
      "灏": 3758,
      "灞": 3759,
      "火": 3760,
      "灬": 3761,
      "灭": 3762,
      "灯": 3763,
      "灰": 3764,
      "灵": 3765,
      "灶": 3766,
      "灸": 3767,
      "灼": 3768,
      "灾": 3769,
      "灿": 3770,
      "炀": 3771,
      "炁": 3772,
      "炅": 3773,
      "炆": 3774,
      "炉": 3775,
      "炊": 3776,
      "炎": 3777,
      "炒": 3778,
      "炔": 3779,
      "炕": 3780,
      "炖": 3781,
      "炘": 3782,
      "炙": 3783,
      "炜": 3784,
      "炝": 3785,
      "炟": 3786,
      "炤": 3787,
      "炫": 3788,
      "炬": 3789,
      "炭": 3790,
      "炮": 3791,
      "炯": 3792,
      "炱": 3793,
      "炳": 3794,
      "炷": 3795,
      "炸": 3796,
      "点": 3797,
      "炻": 3798,
      "炼": 3799,
      "炽": 3800,
      "烀": 3801,
      "烁": 3802,
      "烂": 3803,
      "烃": 3804,
      "烈": 3805,
      "烊": 3806,
      "烔": 3807,
      "烘": 3808,
      "烙": 3809,
      "烛": 3810,
      "烜": 3811,
      "烝": 3812,
      "烟": 3813,
      "烤": 3814,
      "烦": 3815,
      "烧": 3816,
      "烨": 3817,
      "烩": 3818,
      "烫": 3819,
      "烬": 3820,
      "热": 3821,
      "烯": 3822,
      "烷": 3823,
      "烹": 3824,
      "烺": 3825,
      "烽": 3826,
      "焉": 3827,
      "焊": 3828,
      "焐": 3829,
      "焓": 3830,
      "焕": 3831,
      "焖": 3832,
      "焗": 3833,
      "焘": 3834,
      "焙": 3835,
      "焚": 3836,
      "焜": 3837,
      "焦": 3838,
      "焯": 3839,
      "焰": 3840,
      "焱": 3841,
      "然": 3842,
      "焼": 3843,
      "煅": 3844,
      "煊": 3845,
      "煌": 3846,
      "煎": 3847,
      "煕": 3848,
      "煖": 3849,
      "煚": 3850,
      "煜": 3851,
      "煞": 3852,
      "煤": 3853,
      "煦": 3854,
      "照": 3855,
      "煨": 3856,
      "煮": 3857,
      "煲": 3858,
      "煳": 3859,
      "煸": 3860,
      "煺": 3861,
      "煽": 3862,
      "熄": 3863,
      "熊": 3864,
      "熏": 3865,
      "熔": 3866,
      "熘": 3867,
      "熙": 3868,
      "熜": 3869,
      "熟": 3870,
      "熠": 3871,
      "熨": 3872,
      "熬": 3873,
      "熳": 3874,
      "熵": 3875,
      "熹": 3876,
      "燃": 3877,
      "燄": 3878,
      "燊": 3879,
      "燎": 3880,
      "燏": 3881,
      "燐": 3882,
      "燔": 3883,
      "燕": 3884,
      "燚": 3885,
      "燠": 3886,
      "燥": 3887,
      "燧": 3888,
      "燮": 3889,
      "燹": 3890,
      "燿": 3891,
      "爆": 3892,
      "爝": 3893,
      "爨": 3894,
      "爪": 3895,
      "爬": 3896,
      "爰": 3897,
      "爱": 3898,
      "爵": 3899,
      "父": 3900,
      "爷": 3901,
      "爸": 3902,
      "爹": 3903,
      "爻": 3904,
      "爽": 3905,
      "爿": 3906,
      "牁": 3907,
      "牂": 3908,
      "片": 3909,
      "版": 3910,
      "牋": 3911,
      "牌": 3912,
      "牍": 3913,
      "牒": 3914,
      "牖": 3915,
      "牙": 3916,
      "牛": 3917,
      "牝": 3918,
      "牟": 3919,
      "牠": 3920,
      "牡": 3921,
      "牢": 3922,
      "牤": 3923,
      "牦": 3924,
      "牧": 3925,
      "物": 3926,
      "牯": 3927,
      "牲": 3928,
      "牵": 3929,
      "特": 3930,
      "牺": 3931,
      "牾": 3932,
      "犀": 3933,
      "犁": 3934,
      "犂": 3935,
      "犄": 3936,
      "犇": 3937,
      "犊": 3938,
      "犍": 3939,
      "犒": 3940,
      "犟": 3941,
      "犨": 3942,
      "犬": 3943,
      "犭": 3944,
      "犯": 3945,
      "犰": 3946,
      "犴": 3947,
      "状": 3948,
      "犷": 3949,
      "犸": 3950,
      "犹": 3951,
      "犼": 3952,
      "犽": 3953,
      "狁": 3954,
      "狂": 3955,
      "狃": 3956,
      "狄": 3957,
      "狈": 3958,
      "狍": 3959,
      "狎": 3960,
      "狐": 3961,
      "狒": 3962,
      "狗": 3963,
      "狙": 3964,
      "狛": 3965,
      "狝": 3966,
      "狞": 3967,
      "狠": 3968,
      "狡": 3969,
      "狨": 3970,
      "狩": 3971,
      "独": 3972,
      "狭": 3973,
      "狮": 3974,
      "狯": 3975,
      "狰": 3976,
      "狱": 3977,
      "狲": 3978,
      "狳": 3979,
      "狴": 3980,
      "狷": 3981,
      "狸": 3982,
      "狻": 3983,
      "狼": 3984,
      "猁": 3985,
      "猃": 3986,
      "猇": 3987,
      "猊": 3988,
      "猋": 3989,
      "猎": 3990,
      "猓": 3991,
      "猖": 3992,
      "猗": 3993,
      "猛": 3994,
      "猜": 3995,
      "猝": 3996,
      "猞": 3997,
      "猡": 3998,
      "猢": 3999,
      "猥": 4000,
      "猩": 4001,
      "猪": 4002,
      "猫": 4003,
      "猬": 4004,
      "献": 4005,
      "猱": 4006,
      "猴": 4007,
      "猷": 4008,
      "猾": 4009,
      "猿": 4010,
      "獍": 4011,
      "獐": 4012,
      "獒": 4013,
      "獠": 4014,
      "獢": 4015,
      "獣": 4016,
      "獬": 4017,
      "獭": 4018,
      "獴": 4019,
      "獾": 4020,
      "玄": 4021,
      "率": 4022,
      "玉": 4023,
      "王": 4024,
      "玎": 4025,
      "玏": 4026,
      "玑": 4027,
      "玕": 4028,
      "玖": 4029,
      "玗": 4030,
      "玘": 4031,
      "玙": 4032,
      "玚": 4033,
      "玛": 4034,
      "玟": 4035,
      "玠": 4036,
      "玡": 4037,
      "玢": 4038,
      "玥": 4039,
      "玦": 4040,
      "玩": 4041,
      "玫": 4042,
      "玮": 4043,
      "环": 4044,
      "现": 4045,
      "玲": 4046,
      "玳": 4047,
      "玷": 4048,
      "玹": 4049,
      "玺": 4050,
      "玻": 4051,
      "珀": 4052,
      "珂": 4053,
      "珅": 4054,
      "珈": 4055,
      "珉": 4056,
      "珊": 4057,
      "珍": 4058,
      "珏": 4059,
      "珐": 4060,
      "珑": 4061,
      "珙": 4062,
      "珝": 4063,
      "珞": 4064,
      "珠": 4065,
      "珣": 4066,
      "珥": 4067,
      "珦": 4068,
      "珧": 4069,
      "珩": 4070,
      "珪": 4071,
      "班": 4072,
      "珮": 4073,
      "珰": 4074,
      "珲": 4075,
      "珺": 4076,
      "珽": 4077,
      "球": 4078,
      "琅": 4079,
      "理": 4080,
      "琇": 4081,
      "琉": 4082,
      "琊": 4083,
      "琍": 4084,
      "琎": 4085,
      "琏": 4086,
      "琐": 4087,
      "琚": 4088,
      "琛": 4089,
      "琢": 4090,
      "琤": 4091,
      "琥": 4092,
      "琦": 4093,
      "琨": 4094,
      "琪": 4095,
      "琬": 4096,
      "琮": 4097,
      "琯": 4098,
      "琰": 4099,
      "琲": 4100,
      "琳": 4101,
      "琴": 4102,
      "琵": 4103,
      "琶": 4104,
      "琹": 4105,
      "琼": 4106,
      "瑀": 4107,
      "瑁": 4108,
      "瑄": 4109,
      "瑊": 4110,
      "瑕": 4111,
      "瑗": 4112,
      "瑙": 4113,
      "瑚": 4114,
      "瑛": 4115,
      "瑜": 4116,
      "瑞": 4117,
      "瑟": 4118,
      "瑠": 4119,
      "瑢": 4120,
      "瑭": 4121,
      "瑯": 4122,
      "瑰": 4123,
      "瑱": 4124,
      "瑶": 4125,
      "瑷": 4126,
      "瑾": 4127,
      "璀": 4128,
      "璁": 4129,
      "璃": 4130,
      "璆": 4131,
      "璇": 4132,
      "璈": 4133,
      "璋": 4134,
      "璎": 4135,
      "璐": 4136,
      "璘": 4137,
      "璜": 4138,
      "璞": 4139,
      "璟": 4140,
      "璠": 4141,
      "璧": 4142,
      "璨": 4143,
      "璩": 4144,
      "璪": 4145,
      "璿": 4146,
      "瓌": 4147,
      "瓒": 4148,
      "瓘": 4149,
      "瓜": 4150,
      "瓞": 4151,
      "瓠": 4152,
      "瓢": 4153,
      "瓣": 4154,
      "瓤": 4155,
      "瓦": 4156,
      "瓮": 4157,
      "瓯": 4158,
      "瓴": 4159,
      "瓶": 4160,
      "瓷": 4161,
      "瓿": 4162,
      "甃": 4163,
      "甄": 4164,
      "甇": 4165,
      "甈": 4166,
      "甍": 4167,
      "甏": 4168,
      "甑": 4169,
      "甓": 4170,
      "甗": 4171,
      "甘": 4172,
      "甙": 4173,
      "甚": 4174,
      "甜": 4175,
      "生": 4176,
      "甡": 4177,
      "甥": 4178,
      "用": 4179,
      "甩": 4180,
      "甪": 4181,
      "甫": 4182,
      "甬": 4183,
      "甭": 4184,
      "田": 4185,
      "由": 4186,
      "甲": 4187,
      "申": 4188,
      "电": 4189,
      "男": 4190,
      "甸": 4191,
      "町": 4192,
      "画": 4193,
      "甾": 4194,
      "畀": 4195,
      "畅": 4196,
      "畈": 4197,
      "畊": 4198,
      "畋": 4199,
      "界": 4200,
      "畎": 4201,
      "畏": 4202,
      "畑": 4203,
      "畔": 4204,
      "留": 4205,
      "畚": 4206,
      "畛": 4207,
      "畜": 4208,
      "畠": 4209,
      "畤": 4210,
      "略": 4211,
      "畦": 4212,
      "番": 4213,
      "畬": 4214,
      "畯": 4215,
      "畲": 4216,
      "畴": 4217,
      "畸": 4218,
      "畹": 4219,
      "畿": 4220,
      "疃": 4221,
      "疆": 4222,
      "疋": 4223,
      "疍": 4224,
      "疎": 4225,
      "疏": 4226,
      "疑": 4227,
      "疒": 4228,
      "疔": 4229,
      "疖": 4230,
      "疗": 4231,
      "疙": 4232,
      "疚": 4233,
      "疝": 4234,
      "疟": 4235,
      "疠": 4236,
      "疡": 4237,
      "疣": 4238,
      "疤": 4239,
      "疥": 4240,
      "疫": 4241,
      "疬": 4242,
      "疮": 4243,
      "疯": 4244,
      "疰": 4245,
      "疱": 4246,
      "疲": 4247,
      "疳": 4248,
      "疴": 4249,
      "疵": 4250,
      "疸": 4251,
      "疹": 4252,
      "疼": 4253,
      "疽": 4254,
      "疾": 4255,
      "痂": 4256,
      "痄": 4257,
      "病": 4258,
      "症": 4259,
      "痈": 4260,
      "痉": 4261,
      "痊": 4262,
      "痍": 4263,
      "痒": 4264,
      "痔": 4265,
      "痕": 4266,
      "痘": 4267,
      "痛": 4268,
      "痞": 4269,
      "痢": 4270,
      "痣": 4271,
      "痤": 4272,
      "痧": 4273,
      "痨": 4274,
      "痪": 4275,
      "痫": 4276,
      "痰": 4277,
      "痱": 4278,
      "痴": 4279,
      "痹": 4280,
      "痺": 4281,
      "痼": 4282,
      "痿": 4283,
      "瘀": 4284,
      "瘁": 4285,
      "瘅": 4286,
      "瘆": 4287,
      "瘊": 4288,
      "瘕": 4289,
      "瘗": 4290,
      "瘘": 4291,
      "瘙": 4292,
      "瘚": 4293,
      "瘛": 4294,
      "瘜": 4295,
      "瘝": 4296,
      "瘟": 4297,
      "瘠": 4298,
      "瘢": 4299,
      "瘣": 4300,
      "瘤": 4301,
      "瘥": 4302,
      "瘦": 4303,
      "瘨": 4304,
      "瘩": 4305,
      "瘪": 4306,
      "瘫": 4307,
      "瘰": 4308,
      "瘳": 4309,
      "瘴": 4310,
      "瘵": 4311,
      "瘸": 4312,
      "瘼": 4313,
      "瘾": 4314,
      "瘿": 4315,
      "癀": 4316,
      "癃": 4317,
      "癌": 4318,
      "癍": 4319,
      "癎": 4320,
      "癔": 4321,
      "癖": 4322,
      "癞": 4323,
      "癣": 4324,
      "癫": 4325,
      "癯": 4326,
      "癸": 4327,
      "発": 4328,
      "登": 4329,
      "白": 4330,
      "百": 4331,
      "癿": 4332,
      "皂": 4333,
      "的": 4334,
      "皆": 4335,
      "皇": 4336,
      "皈": 4337,
      "皋": 4338,
      "皎": 4339,
      "皐": 4340,
      "皑": 4341,
      "皓": 4342,
      "皖": 4343,
      "皙": 4344,
      "皛": 4345,
      "皜": 4346,
      "皝": 4347,
      "皞": 4348,
      "皤": 4349,
      "皦": 4350,
      "皮": 4351,
      "皱": 4352,
      "皲": 4353,
      "皴": 4354,
      "皿": 4355,
      "盂": 4356,
      "盅": 4357,
      "盆": 4358,
      "盈": 4359,
      "盉": 4360,
      "益": 4361,
      "盍": 4362,
      "盎": 4363,
      "盏": 4364,
      "盐": 4365,
      "监": 4366,
      "盒": 4367,
      "盔": 4368,
      "盖": 4369,
      "盗": 4370,
      "盘": 4371,
      "盛": 4372,
      "盟": 4373,
      "盥": 4374,
      "盦": 4375,
      "盩": 4376,
      "目": 4377,
      "盯": 4378,
      "盱": 4379,
      "盲": 4380,
      "直": 4381,
      "相": 4382,
      "盹": 4383,
      "盼": 4384,
      "盾": 4385,
      "省": 4386,
      "眄": 4387,
      "眇": 4388,
      "眈": 4389,
      "眉": 4390,
      "看": 4391,
      "県": 4392,
      "眙": 4393,
      "眚": 4394,
      "真": 4395,
      "眠": 4396,
      "眦": 4397,
      "眨": 4398,
      "眩": 4399,
      "眭": 4400,
      "眯": 4401,
      "眶": 4402,
      "眷": 4403,
      "眸": 4404,
      "眺": 4405,
      "眼": 4406,
      "着": 4407,
      "睁": 4408,
      "睇": 4409,
      "睐": 4410,
      "睑": 4411,
      "睚": 4412,
      "睛": 4413,
      "睡": 4414,
      "睢": 4415,
      "督": 4416,
      "睥": 4417,
      "睦": 4418,
      "睨": 4419,
      "睫": 4420,
      "睬": 4421,
      "睹": 4422,
      "睺": 4423,
      "睽": 4424,
      "睾": 4425,
      "睿": 4426,
      "瞀": 4427,
      "瞄": 4428,
      "瞅": 4429,
      "瞋": 4430,
      "瞌": 4431,
      "瞍": 4432,
      "瞎": 4433,
      "瞑": 4434,
      "瞒": 4435,
      "瞟": 4436,
      "瞠": 4437,
      "瞢": 4438,
      "瞥": 4439,
      "瞧": 4440,
      "瞩": 4441,
      "瞪": 4442,
      "瞬": 4443,
      "瞭": 4444,
      "瞰": 4445,
      "瞳": 4446,
      "瞻": 4447,
      "瞽": 4448,
      "瞿": 4449,
      "矍": 4450,
      "矗": 4451,
      "矛": 4452,
      "矜": 4453,
      "矢": 4454,
      "矣": 4455,
      "知": 4456,
      "矧": 4457,
      "矩": 4458,
      "矫": 4459,
      "矬": 4460,
      "短": 4461,
      "矮": 4462,
      "石": 4463,
      "矶": 4464,
      "矸": 4465,
      "矻": 4466,
      "矽": 4467,
      "矾": 4468,
      "矿": 4469,
      "砀": 4470,
      "码": 4471,
      "砂": 4472,
      "砌": 4473,
      "砍": 4474,
      "砑": 4475,
      "砒": 4476,
      "研": 4477,
      "砖": 4478,
      "砗": 4479,
      "砚": 4480,
      "砜": 4481,
      "砟": 4482,
      "砣": 4483,
      "砥": 4484,
      "砦": 4485,
      "砧": 4486,
      "砬": 4487,
      "砭": 4488,
      "砰": 4489,
      "砲": 4490,
      "砳": 4491,
      "破": 4492,
      "砵": 4493,
      "砷": 4494,
      "砸": 4495,
      "砹": 4496,
      "砺": 4497,
      "砻": 4498,
      "砼": 4499,
      "砾": 4500,
      "础": 4501,
      "硅": 4502,
      "硇": 4503,
      "硌": 4504,
      "硎": 4505,
      "硏": 4506,
      "硐": 4507,
      "硒": 4508,
      "硕": 4509,
      "硖": 4510,
      "硗": 4511,
      "硙": 4512,
      "硚": 4513,
      "硝": 4514,
      "硪": 4515,
      "硫": 4516,
      "硬": 4517,
      "确": 4518,
      "硷": 4519,
      "硼": 4520,
      "碁": 4521,
      "碇": 4522,
      "碉": 4523,
      "碌": 4524,
      "碍": 4525,
      "碎": 4526,
      "碑": 4527,
      "碓": 4528,
      "碗": 4529,
      "碘": 4530,
      "碚": 4531,
      "碛": 4532,
      "碜": 4533,
      "碟": 4534,
      "碡": 4535,
      "碣": 4536,
      "碧": 4537,
      "碰": 4538,
      "碱": 4539,
      "碲": 4540,
      "碳": 4541,
      "碴": 4542,
      "碶": 4543,
      "碾": 4544,
      "磁": 4545,
      "磅": 4546,
      "磉": 4547,
      "磊": 4548,
      "磋": 4549,
      "磐": 4550,
      "磔": 4551,
      "磕": 4552,
      "磙": 4553,
      "磜": 4554,
      "磡": 4555,
      "磨": 4556,
      "磬": 4557,
      "磲": 4558,
      "磴": 4559,
      "磷": 4560,
      "磺": 4561,
      "磻": 4562,
      "礁": 4563,
      "礅": 4564,
      "礐": 4565,
      "礓": 4566,
      "礞": 4567,
      "礤": 4568,
      "礴": 4569,
      "示": 4570,
      "礼": 4571,
      "礽": 4572,
      "社": 4573,
      "祀": 4574,
      "祁": 4575,
      "祂": 4576,
      "祆": 4577,
      "祇": 4578,
      "祈": 4579,
      "祉": 4580,
      "祊": 4581,
      "祎": 4582,
      "祏": 4583,
      "祐": 4584,
      "祓": 4585,
      "祔": 4586,
      "祖": 4587,
      "祗": 4588,
      "祚": 4589,
      "祛": 4590,
      "祜": 4591,
      "祝": 4592,
      "神": 4593,
      "祟": 4594,
      "祠": 4595,
      "祢": 4596,
      "祥": 4597,
      "祧": 4598,
      "票": 4599,
      "祭": 4600,
      "祯": 4601,
      "祲": 4602,
      "祷": 4603,
      "祸": 4604,
      "祺": 4605,
      "祼": 4606,
      "禀": 4607,
      "禁": 4608,
      "禄": 4609,
      "禅": 4610,
      "禇": 4611,
      "禊": 4612,
      "禋": 4613,
      "福": 4614,
      "禔": 4615,
      "禘": 4616,
      "禛": 4617,
      "禟": 4618,
      "禤": 4619,
      "禧": 4620,
      "禩": 4621,
      "禳": 4622,
      "禵": 4623,
      "禹": 4624,
      "禺": 4625,
      "离": 4626,
      "禽": 4627,
      "禾": 4628,
      "秀": 4629,
      "私": 4630,
      "秃": 4631,
      "秆": 4632,
      "秉": 4633,
      "秋": 4634,
      "种": 4635,
      "科": 4636,
      "秒": 4637,
      "秕": 4638,
      "秘": 4639,
      "租": 4640,
      "秣": 4641,
      "秤": 4642,
      "秦": 4643,
      "秧": 4644,
      "秩": 4645,
      "秫": 4646,
      "秬": 4647,
      "秭": 4648,
      "积": 4649,
      "称": 4650,
      "秸": 4651,
      "移": 4652,
      "秽": 4653,
      "秾": 4654,
      "稀": 4655,
      "稃": 4656,
      "程": 4657,
      "稍": 4658,
      "税": 4659,
      "稔": 4660,
      "稗": 4661,
      "稙": 4662,
      "稚": 4663,
      "稞": 4664,
      "稠": 4665,
      "稣": 4666,
      "稲": 4667,
      "稳": 4668,
      "稷": 4669,
      "稹": 4670,
      "稻": 4671,
      "稼": 4672,
      "稽": 4673,
      "稿": 4674,
      "穂": 4675,
      "穆": 4676,
      "穉": 4677,
      "穏": 4678,
      "穑": 4679,
      "穗": 4680,
      "穰": 4681,
      "穴": 4682,
      "究": 4683,
      "穷": 4684,
      "穹": 4685,
      "空": 4686,
      "穿": 4687,
      "突": 4688,
      "窃": 4689,
      "窄": 4690,
      "窅": 4691,
      "窆": 4692,
      "窈": 4693,
      "窍": 4694,
      "窑": 4695,
      "窒": 4696,
      "窓": 4697,
      "窕": 4698,
      "窖": 4699,
      "窗": 4700,
      "窘": 4701,
      "窜": 4702,
      "窝": 4703,
      "窟": 4704,
      "窠": 4705,
      "窣": 4706,
      "窥": 4707,
      "窦": 4708,
      "窨": 4709,
      "窭": 4710,
      "窳": 4711,
      "窸": 4712,
      "窿": 4713,
      "立": 4714,
      "竑": 4715,
      "竖": 4716,
      "站": 4717,
      "竜": 4718,
      "竝": 4719,
      "竞": 4720,
      "竟": 4721,
      "章": 4722,
      "竣": 4723,
      "童": 4724,
      "竦": 4725,
      "竭": 4726,
      "端": 4727,
      "竹": 4728,
      "竺": 4729,
      "竽": 4730,
      "竿": 4731,
      "笃": 4732,
      "笄": 4733,
      "笆": 4734,
      "笈": 4735,
      "笊": 4736,
      "笋": 4737,
      "笏": 4738,
      "笑": 4739,
      "笔": 4740,
      "笕": 4741,
      "笙": 4742,
      "笛": 4743,
      "笞": 4744,
      "笠": 4745,
      "笤": 4746,
      "笥": 4747,
      "符": 4748,
      "笨": 4749,
      "笪": 4750,
      "笫": 4751,
      "第": 4752,
      "笮": 4753,
      "笳": 4754,
      "笸": 4755,
      "笹": 4756,
      "笺": 4757,
      "笼": 4758,
      "笾": 4759,
      "筅": 4760,
      "筇": 4761,
      "等": 4762,
      "筊": 4763,
      "筋": 4764,
      "筌": 4765,
      "筏": 4766,
      "筐": 4767,
      "筑": 4768,
      "筒": 4769,
      "答": 4770,
      "策": 4771,
      "筘": 4772,
      "筚": 4773,
      "筛": 4774,
      "筜": 4775,
      "筝": 4776,
      "筠": 4777,
      "筭": 4778,
      "筮": 4779,
      "筱": 4780,
      "筲": 4781,
      "筵": 4782,
      "筷": 4783,
      "筹": 4784,
      "筼": 4785,
      "签": 4786,
      "筿": 4787,
      "简": 4788,
      "箄": 4789,
      "箅": 4790,
      "箍": 4791,
      "箐": 4792,
      "箓": 4793,
      "箔": 4794,
      "箕": 4795,
      "算": 4796,
      "箜": 4797,
      "箝": 4798,
      "管": 4799,
      "箦": 4800,
      "箧": 4801,
      "箨": 4802,
      "箩": 4803,
      "箪": 4804,
      "箫": 4805,
      "箬": 4806,
      "箭": 4807,
      "箱": 4808,
      "箴": 4809,
      "箸": 4810,
      "篁": 4811,
      "篆": 4812,
      "篇": 4813,
      "篌": 4814,
      "篑": 4815,
      "篓": 4816,
      "篙": 4817,
      "篚": 4818,
      "篝": 4819,
      "篡": 4820,
      "篥": 4821,
      "篦": 4822,
      "篪": 4823,
      "篮": 4824,
      "篯": 4825,
      "篱": 4826,
      "篷": 4827,
      "篼": 4828,
      "篾": 4829,
      "簃": 4830,
      "簇": 4831,
      "簋": 4832,
      "簌": 4833,
      "簏": 4834,
      "簕": 4835,
      "簟": 4836,
      "簠": 4837,
      "簦": 4838,
      "簧": 4839,
      "簪": 4840,
      "簷": 4841,
      "簸": 4842,
      "簿": 4843,
      "籀": 4844,
      "籁": 4845,
      "籍": 4846,
      "籓": 4847,
      "籥": 4848,
      "米": 4849,
      "籴": 4850,
      "籺": 4851,
      "类": 4852,
      "籼": 4853,
      "籽": 4854,
      "粄": 4855,
      "粉": 4856,
      "粑": 4857,
      "粒": 4858,
      "粕": 4859,
      "粗": 4860,
      "粘": 4861,
      "粜": 4862,
      "粝": 4863,
      "粟": 4864,
      "粢": 4865,
      "粤": 4866,
      "粥": 4867,
      "粦": 4868,
      "粧": 4869,
      "粪": 4870,
      "粮": 4871,
      "粱": 4872,
      "粲": 4873,
      "粳": 4874,
      "粹": 4875,
      "粼": 4876,
      "粽": 4877,
      "精": 4878,
      "粿": 4879,
      "糁": 4880,
      "糅": 4881,
      "糊": 4882,
      "糌": 4883,
      "糍": 4884,
      "糕": 4885,
      "糖": 4886,
      "糗": 4887,
      "糙": 4888,
      "糜": 4889,
      "糟": 4890,
      "糠": 4891,
      "糨": 4892,
      "糬": 4893,
      "糯": 4894,
      "糸": 4895,
      "系": 4896,
      "紊": 4897,
      "素": 4898,
      "索": 4899,
      "紧": 4900,
      "紫": 4901,
      "累": 4902,
      "経": 4903,
      "絜": 4904,
      "絮": 4905,
      "絵": 4906,
      "絷": 4907,
      "綎": 4908,
      "継": 4909,
      "続": 4910,
      "綝": 4911,
      "綦": 4912,
      "綮": 4913,
      "総": 4914,
      "緜": 4915,
      "縁": 4916,
      "縄": 4917,
      "縠": 4918,
      "縯": 4919,
      "縻": 4920,
      "繁": 4921,
      "繇": 4922,
      "繋": 4923,
      "繖": 4924,
      "纂": 4925,
      "纛": 4926,
      "纟": 4927,
      "纠": 4928,
      "纡": 4929,
      "红": 4930,
      "纣": 4931,
      "纤": 4932,
      "纥": 4933,
      "约": 4934,
      "级": 4935,
      "纨": 4936,
      "纩": 4937,
      "纪": 4938,
      "纫": 4939,
      "纬": 4940,
      "纭": 4941,
      "纮": 4942,
      "纯": 4943,
      "纰": 4944,
      "纱": 4945,
      "纲": 4946,
      "纳": 4947,
      "纴": 4948,
      "纵": 4949,
      "纶": 4950,
      "纷": 4951,
      "纸": 4952,
      "纹": 4953,
      "纺": 4954,
      "纻": 4955,
      "纽": 4956,
      "纾": 4957,
      "线": 4958,
      "绀": 4959,
      "绁": 4960,
      "绂": 4961,
      "练": 4962,
      "组": 4963,
      "绅": 4964,
      "细": 4965,
      "织": 4966,
      "终": 4967,
      "绉": 4968,
      "绊": 4969,
      "绌": 4970,
      "绍": 4971,
      "绎": 4972,
      "经": 4973,
      "绐": 4974,
      "绑": 4975,
      "绒": 4976,
      "结": 4977,
      "绔": 4978,
      "绕": 4979,
      "绖": 4980,
      "绗": 4981,
      "绘": 4982,
      "给": 4983,
      "绚": 4984,
      "绛": 4985,
      "络": 4986,
      "绝": 4987,
      "绞": 4988,
      "统": 4989,
      "绠": 4990,
      "绡": 4991,
      "绢": 4992,
      "绣": 4993,
      "绥": 4994,
      "绦": 4995,
      "继": 4996,
      "绨": 4997,
      "绩": 4998,
      "绪": 4999,
      "绫": 5000,
      "续": 5001,
      "绮": 5002,
      "绯": 5003,
      "绰": 5004,
      "绱": 5005,
      "绲": 5006,
      "绳": 5007,
      "维": 5008,
      "绵": 5009,
      "绶": 5010,
      "绷": 5011,
      "绸": 5012,
      "绹": 5013,
      "绺": 5014,
      "绻": 5015,
      "综": 5016,
      "绽": 5017,
      "绾": 5018,
      "绿": 5019,
      "缀": 5020,
      "缁": 5021,
      "缂": 5022,
      "缃": 5023,
      "缄": 5024,
      "缅": 5025,
      "缆": 5026,
      "缇": 5027,
      "缈": 5028,
      "缉": 5029,
      "缊": 5030,
      "缋": 5031,
      "缌": 5032,
      "缍": 5033,
      "缎": 5034,
      "缑": 5035,
      "缒": 5036,
      "缓": 5037,
      "缔": 5038,
      "缕": 5039,
      "编": 5040,
      "缗": 5041,
      "缘": 5042,
      "缙": 5043,
      "缚": 5044,
      "缛": 5045,
      "缜": 5046,
      "缝": 5047,
      "缟": 5048,
      "缠": 5049,
      "缡": 5050,
      "缢": 5051,
      "缣": 5052,
      "缤": 5053,
      "缥": 5054,
      "缦": 5055,
      "缧": 5056,
      "缨": 5057,
      "缩": 5058,
      "缪": 5059,
      "缫": 5060,
      "缬": 5061,
      "缭": 5062,
      "缮": 5063,
      "缯": 5064,
      "缰": 5065,
      "缱": 5066,
      "缲": 5067,
      "缳": 5068,
      "缴": 5069,
      "缵": 5070,
      "缶": 5071,
      "缸": 5072,
      "缺": 5073,
      "罂": 5074,
      "罄": 5075,
      "罅": 5076,
      "罍": 5077,
      "罐": 5078,
      "网": 5079,
      "罒": 5080,
      "罔": 5081,
      "罕": 5082,
      "罗": 5083,
      "罘": 5084,
      "罚": 5085,
      "罟": 5086,
      "罡": 5087,
      "罢": 5088,
      "罥": 5089,
      "罨": 5090,
      "罩": 5091,
      "罪": 5092,
      "置": 5093,
      "署": 5094,
      "罴": 5095,
      "罹": 5096,
      "罽": 5097,
      "罾": 5098,
      "羁": 5099,
      "羊": 5100,
      "羌": 5101,
      "美": 5102,
      "羑": 5103,
      "羔": 5104,
      "羚": 5105,
      "羝": 5106,
      "羞": 5107,
      "羟": 5108,
      "羡": 5109,
      "群": 5110,
      "羧": 5111,
      "羯": 5112,
      "羰": 5113,
      "羲": 5114,
      "羸": 5115,
      "羹": 5116,
      "羼": 5117,
      "羽": 5118,
      "羿": 5119,
      "翀": 5120,
      "翁": 5121,
      "翃": 5122,
      "翅": 5123,
      "翈": 5124,
      "翊": 5125,
      "翌": 5126,
      "翎": 5127,
      "翔": 5128,
      "翕": 5129,
      "翘": 5130,
      "翙": 5131,
      "翚": 5132,
      "翛": 5133,
      "翟": 5134,
      "翠": 5135,
      "翡": 5136,
      "翥": 5137,
      "翦": 5138,
      "翩": 5139,
      "翫": 5140,
      "翮": 5141,
      "翰": 5142,
      "翱": 5143,
      "翳": 5144,
      "翻": 5145,
      "翼": 5146,
      "翾": 5147,
      "耀": 5148,
      "老": 5149,
      "考": 5150,
      "耄": 5151,
      "者": 5152,
      "耆": 5153,
      "耋": 5154,
      "而": 5155,
      "耍": 5156,
      "耐": 5157,
      "耒": 5158,
      "耕": 5159,
      "耗": 5160,
      "耘": 5161,
      "耙": 5162,
      "耜": 5163,
      "耦": 5164,
      "耧": 5165,
      "耨": 5166,
      "耳": 5167,
      "耵": 5168,
      "耶": 5169,
      "耷": 5170,
      "耸": 5171,
      "耻": 5172,
      "耽": 5173,
      "耿": 5174,
      "聂": 5175,
      "聃": 5176,
      "聆": 5177,
      "聊": 5178,
      "聋": 5179,
      "职": 5180,
      "聍": 5181,
      "聒": 5182,
      "联": 5183,
      "聘": 5184,
      "聚": 5185,
      "聡": 5186,
      "聩": 5187,
      "聪": 5188,
      "聱": 5189,
      "聴": 5190,
      "聿": 5191,
      "肃": 5192,
      "肄": 5193,
      "肆": 5194,
      "肇": 5195,
      "肉": 5196,
      "肋": 5197,
      "肌": 5198,
      "肓": 5199,
      "肖": 5200,
      "肘": 5201,
      "肚": 5202,
      "肛": 5203,
      "肜": 5204,
      "肝": 5205,
      "肟": 5206,
      "肠": 5207,
      "股": 5208,
      "肢": 5209,
      "肤": 5210,
      "肥": 5211,
      "肩": 5212,
      "肪": 5213,
      "肫": 5214,
      "肮": 5215,
      "肯": 5216,
      "肱": 5217,
      "育": 5218,
      "肴": 5219,
      "肸": 5220,
      "肺": 5221,
      "肼": 5222,
      "肽": 5223,
      "肾": 5224,
      "肿": 5225,
      "胀": 5226,
      "胁": 5227,
      "胂": 5228,
      "胃": 5229,
      "胄": 5230,
      "胆": 5231,
      "背": 5232,
      "胍": 5233,
      "胎": 5234,
      "胖": 5235,
      "胗": 5236,
      "胙": 5237,
      "胚": 5238,
      "胛": 5239,
      "胜": 5240,
      "胝": 5241,
      "胞": 5242,
      "胡": 5243,
      "胤": 5244,
      "胥": 5245,
      "胧": 5246,
      "胨": 5247,
      "胪": 5248,
      "胫": 5249,
      "胬": 5250,
      "胭": 5251,
      "胯": 5252,
      "胰": 5253,
      "胱": 5254,
      "胳": 5255,
      "胴": 5256,
      "胶": 5257,
      "胸": 5258,
      "胺": 5259,
      "胼": 5260,
      "能": 5261,
      "脂": 5262,
      "脆": 5263,
      "脇": 5264,
      "脉": 5265,
      "脊": 5266,
      "脍": 5267,
      "脏": 5268,
      "脐": 5269,
      "脑": 5270,
      "脒": 5271,
      "脓": 5272,
      "脔": 5273,
      "脖": 5274,
      "脘": 5275,
      "脚": 5276,
      "脞": 5277,
      "脬": 5278,
      "脯": 5279,
      "脰": 5280,
      "脱": 5281,
      "脲": 5282,
      "脳": 5283,
      "脷": 5284,
      "脸": 5285,
      "脾": 5286,
      "脿": 5287,
      "腆": 5288,
      "腈": 5289,
      "腊": 5290,
      "腋": 5291,
      "腌": 5292,
      "腐": 5293,
      "腑": 5294,
      "腓": 5295,
      "腔": 5296,
      "腕": 5297,
      "腘": 5298,
      "腙": 5299,
      "腚": 5300,
      "腠": 5301,
      "腥": 5302,
      "腧": 5303,
      "腩": 5304,
      "腭": 5305,
      "腮": 5306,
      "腰": 5307,
      "腱": 5308,
      "腴": 5309,
      "腹": 5310,
      "腺": 5311,
      "腻": 5312,
      "腾": 5313,
      "腿": 5314,
      "膀": 5315,
      "膂": 5316,
      "膈": 5317,
      "膊": 5318,
      "膏": 5319,
      "膑": 5320,
      "膘": 5321,
      "膛": 5322,
      "膜": 5323,
      "膝": 5324,
      "膦": 5325,
      "膨": 5326,
      "膳": 5327,
      "膺": 5328,
      "膻": 5329,
      "臀": 5330,
      "臁": 5331,
      "臂": 5332,
      "臆": 5333,
      "臊": 5334,
      "臌": 5335,
      "臑": 5336,
      "臞": 5337,
      "臣": 5338,
      "臧": 5339,
      "自": 5340,
      "臬": 5341,
      "臭": 5342,
      "至": 5343,
      "致": 5344,
      "臵": 5345,
      "臻": 5346,
      "臼": 5347,
      "臾": 5348,
      "舀": 5349,
      "舁": 5350,
      "舂": 5351,
      "舄": 5352,
      "舅": 5353,
      "舆": 5354,
      "舌": 5355,
      "舍": 5356,
      "舎": 5357,
      "舐": 5358,
      "舒": 5359,
      "舔": 5360,
      "舖": 5361,
      "舛": 5362,
      "舜": 5363,
      "舞": 5364,
      "舟": 5365,
      "舡": 5366,
      "舢": 5367,
      "舣": 5368,
      "航": 5369,
      "舫": 5370,
      "般": 5371,
      "舯": 5372,
      "舰": 5373,
      "舱": 5374,
      "舲": 5375,
      "舳": 5376,
      "舵": 5377,
      "舶": 5378,
      "舷": 5379,
      "舸": 5380,
      "船": 5381,
      "舺": 5382,
      "舻": 5383,
      "舾": 5384,
      "艄": 5385,
      "艇": 5386,
      "艉": 5387,
      "艋": 5388,
      "艏": 5389,
      "艘": 5390,
      "艮": 5391,
      "良": 5392,
      "艰": 5393,
      "色": 5394,
      "艳": 5395,
      "艸": 5396,
      "艹": 5397,
      "艺": 5398,
      "艽": 5399,
      "艾": 5400,
      "艿": 5401,
      "节": 5402,
      "芃": 5403,
      "芈": 5404,
      "芊": 5405,
      "芋": 5406,
      "芍": 5407,
      "芎": 5408,
      "芑": 5409,
      "芒": 5410,
      "芗": 5411,
      "芘": 5412,
      "芙": 5413,
      "芜": 5414,
      "芝": 5415,
      "芟": 5416,
      "芡": 5417,
      "芣": 5418,
      "芥": 5419,
      "芦": 5420,
      "芨": 5421,
      "芩": 5422,
      "芪": 5423,
      "芫": 5424,
      "芬": 5425,
      "芭": 5426,
      "芮": 5427,
      "芯": 5428,
      "芰": 5429,
      "花": 5430,
      "芳": 5431,
      "芴": 5432,
      "芶": 5433,
      "芷": 5434,
      "芸": 5435,
      "芹": 5436,
      "芽": 5437,
      "芾": 5438,
      "苁": 5439,
      "苄": 5440,
      "苇": 5441,
      "苈": 5442,
      "苋": 5443,
      "苌": 5444,
      "苍": 5445,
      "苎": 5446,
      "苏": 5447,
      "苑": 5448,
      "苒": 5449,
      "苓": 5450,
      "苔": 5451,
      "苕": 5452,
      "苗": 5453,
      "苘": 5454,
      "苛": 5455,
      "苜": 5456,
      "苞": 5457,
      "苟": 5458,
      "苡": 5459,
      "苣": 5460,
      "苤": 5461,
      "若": 5462,
      "苦": 5463,
      "苫": 5464,
      "苯": 5465,
      "英": 5466,
      "苳": 5467,
      "苴": 5468,
      "苷": 5469,
      "苹": 5470,
      "苻": 5471,
      "苾": 5472,
      "茀": 5473,
      "茁": 5474,
      "茂": 5475,
      "范": 5476,
      "茄": 5477,
      "茅": 5478,
      "茆": 5479,
      "茇": 5480,
      "茈": 5481,
      "茉": 5482,
      "茌": 5483,
      "茎": 5484,
      "茏": 5485,
      "茑": 5486,
      "茔": 5487,
      "茕": 5488,
      "茗": 5489,
      "茚": 5490,
      "茛": 5491,
      "茜": 5492,
      "茧": 5493,
      "茨": 5494,
      "茫": 5495,
      "茬": 5496,
      "茭": 5497,
      "茯": 5498,
      "茱": 5499,
      "茴": 5500,
      "茵": 5501,
      "茶": 5502,
      "茸": 5503,
      "茹": 5504,
      "茺": 5505,
      "茼": 5506,
      "荀": 5507,
      "荃": 5508,
      "荆": 5509,
      "荇": 5510,
      "草": 5511,
      "荏": 5512,
      "荐": 5513,
      "荑": 5514,
      "荒": 5515,
      "荔": 5516,
      "荖": 5517,
      "荘": 5518,
      "荚": 5519,
      "荛": 5520,
      "荜": 5521,
      "荞": 5522,
      "荟": 5523,
      "荠": 5524,
      "荡": 5525,
      "荣": 5526,
      "荤": 5527,
      "荥": 5528,
      "荦": 5529,
      "荧": 5530,
      "荨": 5531,
      "荩": 5532,
      "荪": 5533,
      "荫": 5534,
      "荬": 5535,
      "荭": 5536,
      "药": 5537,
      "荳": 5538,
      "荷": 5539,
      "荻": 5540,
      "荼": 5541,
      "荽": 5542,
      "莅": 5543,
      "莆": 5544,
      "莉": 5545,
      "莎": 5546,
      "莒": 5547,
      "莓": 5548,
      "莘": 5549,
      "莛": 5550,
      "莜": 5551,
      "莞": 5552,
      "莠": 5553,
      "莨": 5554,
      "莩": 5555,
      "莪": 5556,
      "莫": 5557,
      "莱": 5558,
      "莲": 5559,
      "莳": 5560,
      "莶": 5561,
      "获": 5562,
      "莸": 5563,
      "莹": 5564,
      "莺": 5565,
      "莼": 5566,
      "莽": 5567,
      "莿": 5568,
      "菀": 5569,
      "菁": 5570,
      "菅": 5571,
      "菇": 5572,
      "菈": 5573,
      "菉": 5574,
      "菊": 5575,
      "菌": 5576,
      "菏": 5577,
      "菑": 5578,
      "菓": 5579,
      "菔": 5580,
      "菖": 5581,
      "菘": 5582,
      "菜": 5583,
      "菝": 5584,
      "菟": 5585,
      "菠": 5586,
      "菡": 5587,
      "菩": 5588,
      "菪": 5589,
      "菫": 5590,
      "菰": 5591,
      "菱": 5592,
      "菲": 5593,
      "菹": 5594,
      "菽": 5595,
      "萁": 5596,
      "萃": 5597,
      "萄": 5598,
      "萆": 5599,
      "萋": 5600,
      "萌": 5601,
      "萍": 5602,
      "萎": 5603,
      "萏": 5604,
      "萘": 5605,
      "萜": 5606,
      "萝": 5607,
      "萤": 5608,
      "营": 5609,
      "萦": 5610,
      "萧": 5611,
      "萨": 5612,
      "萩": 5613,
      "萱": 5614,
      "萸": 5615,
      "萼": 5616,
      "落": 5617,
      "葆": 5618,
      "葑": 5619,
      "葖": 5620,
      "著": 5621,
      "葙": 5622,
      "葚": 5623,
      "葛": 5624,
      "葜": 5625,
      "葡": 5626,
      "董": 5627,
      "葩": 5628,
      "葫": 5629,
      "葬": 5630,
      "葭": 5631,
      "葱": 5632,
      "葳": 5633,
      "葵": 5634,
      "葶": 5635,
      "葺": 5636,
      "蒂": 5637,
      "蒉": 5638,
      "蒋": 5639,
      "蒌": 5640,
      "蒎": 5641,
      "蒗": 5642,
      "蒙": 5643,
      "蒜": 5644,
      "蒟": 5645,
      "蒡": 5646,
      "蒨": 5647,
      "蒯": 5648,
      "蒲": 5649,
      "蒴": 5650,
      "蒸": 5651,
      "蒹": 5652,
      "蒺": 5653,
      "蒻": 5654,
      "蒽": 5655,
      "蒾": 5656,
      "蒿": 5657,
      "蓁": 5658,
      "蓂": 5659,
      "蓄": 5660,
      "蓇": 5661,
      "蓉": 5662,
      "蓊": 5663,
      "蓍": 5664,
      "蓐": 5665,
      "蓑": 5666,
      "蓓": 5667,
      "蓖": 5668,
      "蓝": 5669,
      "蓟": 5670,
      "蓠": 5671,
      "蓣": 5672,
      "蓥": 5673,
      "蓦": 5674,
      "蓬": 5675,
      "蓼": 5676,
      "蓿": 5677,
      "蔌": 5678,
      "蔑": 5679,
      "蔓": 5680,
      "蔗": 5681,
      "蔚": 5682,
      "蔟": 5683,
      "蔡": 5684,
      "蔫": 5685,
      "蔬": 5686,
      "蔴": 5687,
      "蔵": 5688,
      "蔷": 5689,
      "蔸": 5690,
      "蔹": 5691,
      "蔺": 5692,
      "蔻": 5693,
      "蔼": 5694,
      "蔽": 5695,
      "蕃": 5696,
      "蕈": 5697,
      "蕉": 5698,
      "蕊": 5699,
      "蕖": 5700,
      "蕗": 5701,
      "蕙": 5702,
      "蕞": 5703,
      "蕡": 5704,
      "蕤": 5705,
      "蕨": 5706,
      "蕰": 5707,
      "蕲": 5708,
      "蕴": 5709,
      "蕹": 5710,
      "蕺": 5711,
      "蕻": 5712,
      "蕾": 5713,
      "薄": 5714,
      "薅": 5715,
      "薇": 5716,
      "薏": 5717,
      "薙": 5718,
      "薛": 5719,
      "薜": 5720,
      "薢": 5721,
      "薤": 5722,
      "薨": 5723,
      "薪": 5724,
      "薫": 5725,
      "薬": 5726,
      "薮": 5727,
      "薯": 5728,
      "薰": 5729,
      "薷": 5730,
      "薹": 5731,
      "藁": 5732,
      "藉": 5733,
      "藏": 5734,
      "藐": 5735,
      "藓": 5736,
      "藔": 5737,
      "藕": 5738,
      "藜": 5739,
      "藠": 5740,
      "藤": 5741,
      "藦": 5742,
      "藨": 5743,
      "藩": 5744,
      "藻": 5745,
      "藿": 5746,
      "蘅": 5747,
      "蘑": 5748,
      "蘖": 5749,
      "蘧": 5750,
      "蘩": 5751,
      "蘸": 5752,
      "蘼": 5753,
      "虎": 5754,
      "虏": 5755,
      "虐": 5756,
      "虑": 5757,
      "虒": 5758,
      "虓": 5759,
      "虔": 5760,
      "虚": 5761,
      "虞": 5762,
      "虢": 5763,
      "虫": 5764,
      "虬": 5765,
      "虮": 5766,
      "虱": 5767,
      "虹": 5768,
      "虺": 5769,
      "虻": 5770,
      "虽": 5771,
      "虾": 5772,
      "虿": 5773,
      "蚀": 5774,
      "蚁": 5775,
      "蚂": 5776,
      "蚊": 5777,
      "蚋": 5778,
      "蚌": 5779,
      "蚍": 5780,
      "蚓": 5781,
      "蚕": 5782,
      "蚜": 5783,
      "蚝": 5784,
      "蚡": 5785,
      "蚣": 5786,
      "蚤": 5787,
      "蚧": 5788,
      "蚨": 5789,
      "蚩": 5790,
      "蚪": 5791,
      "蚬": 5792,
      "蚰": 5793,
      "蚱": 5794,
      "蚴": 5795,
      "蚵": 5796,
      "蚶": 5797,
      "蚺": 5798,
      "蛀": 5799,
      "蛄": 5800,
      "蛆": 5801,
      "蛇": 5802,
      "蛉": 5803,
      "蛊": 5804,
      "蛋": 5805,
      "蛎": 5806,
      "蛏": 5807,
      "蛐": 5808,
      "蛔": 5809,
      "蛙": 5810,
      "蛛": 5811,
      "蛞": 5812,
      "蛟": 5813,
      "蛤": 5814,
      "蛩": 5815,
      "蛭": 5816,
      "蛮": 5817,
      "蛰": 5818,
      "蛱": 5819,
      "蛲": 5820,
      "蛳": 5821,
      "蛴": 5822,
      "蛸": 5823,
      "蛹": 5824,
      "蛾": 5825,
      "蜀": 5826,
      "蜂": 5827,
      "蜃": 5828,
      "蜇": 5829,
      "蜈": 5830,
      "蜉": 5831,
      "蜊": 5832,
      "蜑": 5833,
      "蜒": 5834,
      "蜓": 5835,
      "蜕": 5836,
      "蜗": 5837,
      "蜘": 5838,
      "蜚": 5839,
      "蜜": 5840,
      "蜞": 5841,
      "蜡": 5842,
      "蜢": 5843,
      "蜣": 5844,
      "蜥": 5845,
      "蜩": 5846,
      "蜮": 5847,
      "蜱": 5848,
      "蜴": 5849,
      "蜷": 5850,
      "蜺": 5851,
      "蜻": 5852,
      "蜿": 5853,
      "蝇": 5854,
      "蝈": 5855,
      "蝉": 5856,
      "蝌": 5857,
      "蝎": 5858,
      "蝏": 5859,
      "蝐": 5860,
      "蝑": 5861,
      "蝓": 5862,
      "蝔": 5863,
      "蝖": 5864,
      "蝗": 5865,
      "蝘": 5866,
      "蝙": 5867,
      "蝚": 5868,
      "蝞": 5869,
      "蝠": 5870,
      "蝡": 5871,
      "蝢": 5872,
      "蝣": 5873,
      "蝤": 5874,
      "蝥": 5875,
      "蝮": 5876,
      "蝰": 5877,
      "蝴": 5878,
      "蝵": 5879,
      "蝶": 5880,
      "蝷": 5881,
      "蝻": 5882,
      "蝼": 5883,
      "蝽": 5884,
      "蝾": 5885,
      "螂": 5886,
      "螃": 5887,
      "螅": 5888,
      "螈": 5889,
      "螋": 5890,
      "融": 5891,
      "螟": 5892,
      "螣": 5893,
      "螨": 5894,
      "螫": 5895,
      "螬": 5896,
      "螭": 5897,
      "螯": 5898,
      "螳": 5899,
      "螵": 5900,
      "螺": 5901,
      "螽": 5902,
      "蟀": 5903,
      "蟆": 5904,
      "蟊": 5905,
      "蟋": 5906,
      "蟑": 5907,
      "蟒": 5908,
      "蟛": 5909,
      "蟠": 5910,
      "蟡": 5911,
      "蟥": 5912,
      "蟪": 5913,
      "蟮": 5914,
      "蟷": 5915,
      "蟹": 5916,
      "蟾": 5917,
      "蠃": 5918,
      "蠊": 5919,
      "蠓": 5920,
      "蠕": 5921,
      "蠖": 5922,
      "蠛": 5923,
      "蠡": 5924,
      "蠢": 5925,
      "蠲": 5926,
      "蠹": 5927,
      "血": 5928,
      "衄": 5929,
      "衅": 5930,
      "行": 5931,
      "衍": 5932,
      "衎": 5933,
      "衔": 5934,
      "街": 5935,
      "衙": 5936,
      "衞": 5937,
      "衡": 5938,
      "衢": 5939,
      "衣": 5940,
      "补": 5941,
      "表": 5942,
      "衩": 5943,
      "衫": 5944,
      "衬": 5945,
      "衮": 5946,
      "衰": 5947,
      "衲": 5948,
      "衷": 5949,
      "衽": 5950,
      "衾": 5951,
      "衿": 5952,
      "袁": 5953,
      "袂": 5954,
      "袄": 5955,
      "袅": 5956,
      "袆": 5957,
      "袋": 5958,
      "袍": 5959,
      "袒": 5960,
      "袖": 5961,
      "袛": 5962,
      "袜": 5963,
      "袢": 5964,
      "袤": 5965,
      "袪": 5966,
      "被": 5967,
      "袭": 5968,
      "袱": 5969,
      "袴": 5970,
      "袷": 5971,
      "裁": 5972,
      "裂": 5973,
      "装": 5974,
      "裆": 5975,
      "裒": 5976,
      "裔": 5977,
      "裕": 5978,
      "裘": 5979,
      "裙": 5980,
      "裟": 5981,
      "裢": 5982,
      "裤": 5983,
      "裥": 5984,
      "裨": 5985,
      "裱": 5986,
      "裳": 5987,
      "裴": 5988,
      "裸": 5989,
      "裹": 5990,
      "裼": 5991,
      "裾": 5992,
      "褂": 5993,
      "褊": 5994,
      "褐": 5995,
      "褒": 5996,
      "褓": 5997,
      "褔": 5998,
      "褙": 5999,
      "褚": 6000,
      "褛": 6001,
      "褡": 6002,
      "褥": 6003,
      "褪": 6004,
      "褫": 6005,
      "褰": 6006,
      "褴": 6007,
      "褶": 6008,
      "襁": 6009,
      "襄": 6010,
      "襕": 6011,
      "襜": 6012,
      "襞": 6013,
      "襟": 6014,
      "襦": 6015,
      "襻": 6016,
      "西": 6017,
      "要": 6018,
      "覃": 6019,
      "覆": 6020,
      "覇": 6021,
      "覚": 6022,
      "覧": 6023,
      "覩": 6024,
      "観": 6025,
      "见": 6026,
      "观": 6027,
      "规": 6028,
      "觅": 6029,
      "视": 6030,
      "觇": 6031,
      "览": 6032,
      "觉": 6033,
      "觊": 6034,
      "觋": 6035,
      "觌": 6036,
      "觏": 6037,
      "觐": 6038,
      "觑": 6039,
      "角": 6040,
      "觚": 6041,
      "觜": 6042,
      "觞": 6043,
      "解": 6044,
      "觥": 6045,
      "触": 6046,
      "觯": 6047,
      "觳": 6048,
      "言": 6049,
      "訄": 6050,
      "訇": 6051,
      "訏": 6052,
      "訚": 6053,
      "訫": 6054,
      "訳": 6055,
      "訾": 6056,
      "詈": 6057,
      "詧": 6058,
      "詨": 6059,
      "詹": 6060,
      "誉": 6061,
      "誊": 6062,
      "誓": 6063,
      "読": 6064,
      "諲": 6065,
      "謇": 6066,
      "謌": 6067,
      "謦": 6068,
      "譌": 6069,
      "譛": 6070,
      "警": 6071,
      "譬": 6072,
      "譲": 6073,
      "讙": 6074,
      "讠": 6075,
      "计": 6076,
      "订": 6077,
      "讣": 6078,
      "认": 6079,
      "讥": 6080,
      "讦": 6081,
      "讧": 6082,
      "讨": 6083,
      "让": 6084,
      "讪": 6085,
      "讫": 6086,
      "讬": 6087,
      "训": 6088,
      "议": 6089,
      "讯": 6090,
      "记": 6091,
      "讲": 6092,
      "讳": 6093,
      "讴": 6094,
      "讵": 6095,
      "讶": 6096,
      "讷": 6097,
      "许": 6098,
      "讹": 6099,
      "论": 6100,
      "讼": 6101,
      "讽": 6102,
      "设": 6103,
      "访": 6104,
      "诀": 6105,
      "证": 6106,
      "诂": 6107,
      "诃": 6108,
      "评": 6109,
      "诅": 6110,
      "识": 6111,
      "诈": 6112,
      "诉": 6113,
      "诊": 6114,
      "诋": 6115,
      "诌": 6116,
      "词": 6117,
      "诎": 6118,
      "诏": 6119,
      "译": 6120,
      "诒": 6121,
      "诓": 6122,
      "诔": 6123,
      "试": 6124,
      "诗": 6125,
      "诘": 6126,
      "诙": 6127,
      "诚": 6128,
      "诛": 6129,
      "诜": 6130,
      "话": 6131,
      "诞": 6132,
      "诟": 6133,
      "诠": 6134,
      "诡": 6135,
      "询": 6136,
      "诣": 6137,
      "诤": 6138,
      "该": 6139,
      "详": 6140,
      "诧": 6141,
      "诨": 6142,
      "诩": 6143,
      "诫": 6144,
      "诬": 6145,
      "语": 6146,
      "诮": 6147,
      "误": 6148,
      "诰": 6149,
      "诱": 6150,
      "诲": 6151,
      "诳": 6152,
      "说": 6153,
      "诵": 6154,
      "诶": 6155,
      "请": 6156,
      "诸": 6157,
      "诹": 6158,
      "诺": 6159,
      "读": 6160,
      "诽": 6161,
      "课": 6162,
      "诿": 6163,
      "谀": 6164,
      "谁": 6165,
      "谂": 6166,
      "调": 6167,
      "谄": 6168,
      "谅": 6169,
      "谆": 6170,
      "谈": 6171,
      "谊": 6172,
      "谋": 6173,
      "谌": 6174,
      "谍": 6175,
      "谎": 6176,
      "谏": 6177,
      "谐": 6178,
      "谑": 6179,
      "谒": 6180,
      "谓": 6181,
      "谔": 6182,
      "谕": 6183,
      "谖": 6184,
      "谗": 6185,
      "谘": 6186,
      "谙": 6187,
      "谚": 6188,
      "谛": 6189,
      "谜": 6190,
      "谝": 6191,
      "谞": 6192,
      "谟": 6193,
      "谠": 6194,
      "谡": 6195,
      "谢": 6196,
      "谣": 6197,
      "谤": 6198,
      "谥": 6199,
      "谦": 6200,
      "谧": 6201,
      "谨": 6202,
      "谩": 6203,
      "谪": 6204,
      "谬": 6205,
      "谭": 6206,
      "谮": 6207,
      "谯": 6208,
      "谰": 6209,
      "谱": 6210,
      "谲": 6211,
      "谳": 6212,
      "谴": 6213,
      "谵": 6214,
      "谶": 6215,
      "谷": 6216,
      "谿": 6217,
      "豁": 6218,
      "豆": 6219,
      "豇": 6220,
      "豉": 6221,
      "豊": 6222,
      "豌": 6223,
      "豕": 6224,
      "豚": 6225,
      "象": 6226,
      "豢": 6227,
      "豨": 6228,
      "豪": 6229,
      "豫": 6230,
      "豳": 6231,
      "豸": 6232,
      "豹": 6233,
      "豺": 6234,
      "貂": 6235,
      "貉": 6236,
      "貊": 6237,
      "貌": 6238,
      "貍": 6239,
      "貔": 6240,
      "貘": 6241,
      "賨": 6242,
      "賸": 6243,
      "贝": 6244,
      "贞": 6245,
      "负": 6246,
      "贠": 6247,
      "贡": 6248,
      "财": 6249,
      "责": 6250,
      "贤": 6251,
      "败": 6252,
      "账": 6253,
      "货": 6254,
      "质": 6255,
      "贩": 6256,
      "贪": 6257,
      "贫": 6258,
      "贬": 6259,
      "购": 6260,
      "贮": 6261,
      "贯": 6262,
      "贰": 6263,
      "贱": 6264,
      "贲": 6265,
      "贳": 6266,
      "贴": 6267,
      "贵": 6268,
      "贶": 6269,
      "贷": 6270,
      "贸": 6271,
      "费": 6272,
      "贺": 6273,
      "贻": 6274,
      "贼": 6275,
      "贽": 6276,
      "贾": 6277,
      "贿": 6278,
      "赀": 6279,
      "赁": 6280,
      "赂": 6281,
      "赃": 6282,
      "资": 6283,
      "赅": 6284,
      "赈": 6285,
      "赉": 6286,
      "赊": 6287,
      "赋": 6288,
      "赌": 6289,
      "赍": 6290,
      "赎": 6291,
      "赏": 6292,
      "赐": 6293,
      "赑": 6294,
      "赓": 6295,
      "赔": 6296,
      "赕": 6297,
      "赖": 6298,
      "赘": 6299,
      "赙": 6300,
      "赚": 6301,
      "赛": 6302,
      "赜": 6303,
      "赝": 6304,
      "赞": 6305,
      "赟": 6306,
      "赠": 6307,
      "赡": 6308,
      "赢": 6309,
      "赣": 6310,
      "赤": 6311,
      "赦": 6312,
      "赧": 6313,
      "赪": 6314,
      "赫": 6315,
      "赭": 6316,
      "走": 6317,
      "赳": 6318,
      "赴": 6319,
      "赵": 6320,
      "赶": 6321,
      "起": 6322,
      "趁": 6323,
      "趄": 6324,
      "超": 6325,
      "越": 6326,
      "趋": 6327,
      "趔": 6328,
      "趟": 6329,
      "趣": 6330,
      "足": 6331,
      "趴": 6332,
      "趵": 6333,
      "趸": 6334,
      "趺": 6335,
      "趼": 6336,
      "趾": 6337,
      "趿": 6338,
      "跂": 6339,
      "跃": 6340,
      "跄": 6341,
      "跆": 6342,
      "跋": 6343,
      "跌": 6344,
      "跎": 6345,
      "跏": 6346,
      "跑": 6347,
      "跖": 6348,
      "跗": 6349,
      "跚": 6350,
      "跛": 6351,
      "距": 6352,
      "跞": 6353,
      "跟": 6354,
      "跣": 6355,
      "跤": 6356,
      "跨": 6357,
      "跩": 6358,
      "跪": 6359,
      "跫": 6360,
      "跬": 6361,
      "路": 6362,
      "跳": 6363,
      "践": 6364,
      "跶": 6365,
      "跷": 6366,
      "跸": 6367,
      "跹": 6368,
      "跺": 6369,
      "跻": 6370,
      "跽": 6371,
      "踅": 6372,
      "踉": 6373,
      "踊": 6374,
      "踌": 6375,
      "踏": 6376,
      "踔": 6377,
      "踝": 6378,
      "踞": 6379,
      "踟": 6380,
      "踢": 6381,
      "踣": 6382,
      "踩": 6383,
      "踪": 6384,
      "踬": 6385,
      "踮": 6386,
      "踯": 6387,
      "踱": 6388,
      "踵": 6389,
      "踹": 6390,
      "踽": 6391,
      "蹀": 6392,
      "蹁": 6393,
      "蹂": 6394,
      "蹄": 6395,
      "蹇": 6396,
      "蹈": 6397,
      "蹉": 6398,
      "蹊": 6399,
      "蹋": 6400,
      "蹑": 6401,
      "蹒": 6402,
      "蹙": 6403,
      "蹚": 6404,
      "蹠": 6405,
      "蹦": 6406,
      "蹩": 6407,
      "蹬": 6408,
      "蹭": 6409,
      "蹰": 6410,
      "蹲": 6411,
      "蹴": 6412,
      "蹶": 6413,
      "蹼": 6414,
      "蹿": 6415,
      "躁": 6416,
      "躄": 6417,
      "躅": 6418,
      "躇": 6419,
      "躔": 6420,
      "躞": 6421,
      "身": 6422,
      "躬": 6423,
      "躯": 6424,
      "躲": 6425,
      "躺": 6426,
      "転": 6427,
      "軽": 6428,
      "车": 6429,
      "轧": 6430,
      "轨": 6431,
      "轩": 6432,
      "轫": 6433,
      "转": 6434,
      "轭": 6435,
      "轮": 6436,
      "软": 6437,
      "轰": 6438,
      "轱": 6439,
      "轲": 6440,
      "轳": 6441,
      "轴": 6442,
      "轵": 6443,
      "轶": 6444,
      "轸": 6445,
      "轹": 6446,
      "轺": 6447,
      "轻": 6448,
      "轼": 6449,
      "载": 6450,
      "轾": 6451,
      "轿": 6452,
      "辀": 6453,
      "辂": 6454,
      "较": 6455,
      "辄": 6456,
      "辅": 6457,
      "辆": 6458,
      "辇": 6459,
      "辈": 6460,
      "辉": 6461,
      "辊": 6462,
      "辋": 6463,
      "辍": 6464,
      "辎": 6465,
      "辏": 6466,
      "辐": 6467,
      "辑": 6468,
      "输": 6469,
      "辔": 6470,
      "辕": 6471,
      "辖": 6472,
      "辗": 6473,
      "辘": 6474,
      "辙": 6475,
      "辚": 6476,
      "辛": 6477,
      "辜": 6478,
      "辞": 6479,
      "辟": 6480,
      "辣": 6481,
      "辨": 6482,
      "辩": 6483,
      "辫": 6484,
      "辰": 6485,
      "辱": 6486,
      "边": 6487,
      "辺": 6488,
      "辻": 6489,
      "込": 6490,
      "辽": 6491,
      "达": 6492,
      "辿": 6493,
      "迁": 6494,
      "迂": 6495,
      "迄": 6496,
      "迅": 6497,
      "过": 6498,
      "迈": 6499,
      "迎": 6500,
      "运": 6501,
      "近": 6502,
      "迓": 6503,
      "返": 6504,
      "迕": 6505,
      "还": 6506,
      "这": 6507,
      "迚": 6508,
      "进": 6509,
      "远": 6510,
      "违": 6511,
      "连": 6512,
      "迟": 6513,
      "迢": 6514,
      "迤": 6515,
      "迥": 6516,
      "迦": 6517,
      "迨": 6518,
      "迩": 6519,
      "迪": 6520,
      "迫": 6521,
      "迭": 6522,
      "述": 6523,
      "迳": 6524,
      "迷": 6525,
      "迸": 6526,
      "迹": 6527,
      "迺": 6528,
      "追": 6529,
      "退": 6530,
      "送": 6531,
      "适": 6532,
      "逃": 6533,
      "逄": 6534,
      "逅": 6535,
      "逆": 6536,
      "选": 6537,
      "逊": 6538,
      "逋": 6539,
      "逍": 6540,
      "透": 6541,
      "逐": 6542,
      "逑": 6543,
      "递": 6544,
      "途": 6545,
      "逖": 6546,
      "逗": 6547,
      "通": 6548,
      "逛": 6549,
      "逝": 6550,
      "逞": 6551,
      "速": 6552,
      "造": 6553,
      "逡": 6554,
      "逢": 6555,
      "逦": 6556,
      "逧": 6557,
      "逮": 6558,
      "逯": 6559,
      "逵": 6560,
      "逶": 6561,
      "逸": 6562,
      "逹": 6563,
      "逻": 6564,
      "逼": 6565,
      "逾": 6566,
      "遁": 6567,
      "遂": 6568,
      "遄": 6569,
      "遇": 6570,
      "遍": 6571,
      "遏": 6572,
      "遐": 6573,
      "遑": 6574,
      "遒": 6575,
      "道": 6576,
      "遗": 6577,
      "遘": 6578,
      "遛": 6579,
      "遢": 6580,
      "遣": 6581,
      "遥": 6582,
      "遨": 6583,
      "遭": 6584,
      "遮": 6585,
      "遯": 6586,
      "遴": 6587,
      "遵": 6588,
      "遶": 6589,
      "遹": 6590,
      "遽": 6591,
      "避": 6592,
      "邀": 6593,
      "邂": 6594,
      "邃": 6595,
      "邈": 6596,
      "邋": 6597,
      "邑": 6598,
      "邓": 6599,
      "邕": 6600,
      "邗": 6601,
      "邙": 6602,
      "邛": 6603,
      "邝": 6604,
      "邠": 6605,
      "邡": 6606,
      "邢": 6607,
      "那": 6608,
      "邦": 6609,
      "邨": 6610,
      "邪": 6611,
      "邬": 6612,
      "邮": 6613,
      "邯": 6614,
      "邰": 6615,
      "邱": 6616,
      "邳": 6617,
      "邴": 6618,
      "邵": 6619,
      "邶": 6620,
      "邸": 6621,
      "邹": 6622,
      "邺": 6623,
      "邻": 6624,
      "邽": 6625,
      "邾": 6626,
      "郁": 6627,
      "郃": 6628,
      "郄": 6629,
      "郅": 6630,
      "郇": 6631,
      "郊": 6632,
      "郎": 6633,
      "郏": 6634,
      "郐": 6635,
      "郑": 6636,
      "郓": 6637,
      "郕": 6638,
      "郗": 6639,
      "郛": 6640,
      "郜": 6641,
      "郝": 6642,
      "郞": 6643,
      "郡": 6644,
      "郢": 6645,
      "郤": 6646,
      "郦": 6647,
      "郧": 6648,
      "部": 6649,
      "郪": 6650,
      "郫": 6651,
      "郭": 6652,
      "郯": 6653,
      "郴": 6654,
      "郷": 6655,
      "郸": 6656,
      "都": 6657,
      "郾": 6658,
      "郿": 6659,
      "鄂": 6660,
      "鄄": 6661,
      "鄗": 6662,
      "鄘": 6663,
      "鄙": 6664,
      "鄚": 6665,
      "鄜": 6666,
      "鄞": 6667,
      "鄠": 6668,
      "鄢": 6669,
      "鄣": 6670,
      "鄩": 6671,
      "鄫": 6672,
      "鄮": 6673,
      "鄯": 6674,
      "鄱": 6675,
      "酂": 6676,
      "酃": 6677,
      "酆": 6678,
      "酉": 6679,
      "酊": 6680,
      "酋": 6681,
      "酌": 6682,
      "配": 6683,
      "酎": 6684,
      "酐": 6685,
      "酒": 6686,
      "酔": 6687,
      "酗": 6688,
      "酚": 6689,
      "酝": 6690,
      "酞": 6691,
      "酡": 6692,
      "酢": 6693,
      "酣": 6694,
      "酤": 6695,
      "酥": 6696,
      "酩": 6697,
      "酪": 6698,
      "酬": 6699,
      "酮": 6700,
      "酯": 6701,
      "酰": 6702,
      "酱": 6703,
      "酲": 6704,
      "酴": 6705,
      "酵": 6706,
      "酶": 6707,
      "酷": 6708,
      "酸": 6709,
      "酹": 6710,
      "酺": 6711,
      "酽": 6712,
      "酾": 6713,
      "酿": 6714,
      "醂": 6715,
      "醅": 6716,
      "醇": 6717,
      "醉": 6718,
      "醋": 6719,
      "醌": 6720,
      "醍": 6721,
      "醐": 6722,
      "醑": 6723,
      "醒": 6724,
      "醚": 6725,
      "醛": 6726,
      "醢": 6727,
      "醪": 6728,
      "醮": 6729,
      "醯": 6730,
      "醴": 6731,
      "醵": 6732,
      "醺": 6733,
      "釆": 6734,
      "采": 6735,
      "釉": 6736,
      "释": 6737,
      "里": 6738,
      "重": 6739,
      "野": 6740,
      "量": 6741,
      "金": 6742,
      "釜": 6743,
      "釭": 6744,
      "釿": 6745,
      "鈭": 6746,
      "鉄": 6747,
      "鉏": 6748,
      "鉨": 6749,
      "鉴": 6750,
      "銆": 6751,
      "銋": 6752,
      "銎": 6753,
      "銝": 6754,
      "銮": 6755,
      "銵": 6756,
      "鋆": 6757,
      "鋐": 6758,
      "鋬": 6759,
      "錞": 6760,
      "錾": 6761,
      "鍪": 6762,
      "鎏": 6763,
      "鎓": 6764,
      "鎗": 6765,
      "鏊": 6766,
      "鏖": 6767,
      "鑫": 6768,
      "钅": 6769,
      "钆": 6770,
      "钇": 6771,
      "针": 6772,
      "钉": 6773,
      "钊": 6774,
      "钋": 6775,
      "钌": 6776,
      "钍": 6777,
      "钎": 6778,
      "钏": 6779,
      "钐": 6780,
      "钒": 6781,
      "钓": 6782,
      "钕": 6783,
      "钖": 6784,
      "钗": 6785,
      "钙": 6786,
      "钚": 6787,
      "钛": 6788,
      "钜": 6789,
      "钝": 6790,
      "钞": 6791,
      "钟": 6792,
      "钠": 6793,
      "钡": 6794,
      "钢": 6795,
      "钣": 6796,
      "钤": 6797,
      "钥": 6798,
      "钦": 6799,
      "钧": 6800,
      "钨": 6801,
      "钩": 6802,
      "钪": 6803,
      "钫": 6804,
      "钬": 6805,
      "钭": 6806,
      "钮": 6807,
      "钯": 6808,
      "钰": 6809,
      "钱": 6810,
      "钲": 6811,
      "钳": 6812,
      "钴": 6813,
      "钵": 6814,
      "钹": 6815,
      "钺": 6816,
      "钻": 6817,
      "钼": 6818,
      "钽": 6819,
      "钾": 6820,
      "钿": 6821,
      "铀": 6822,
      "铁": 6823,
      "铂": 6824,
      "铃": 6825,
      "铄": 6826,
      "铅": 6827,
      "铆": 6828,
      "铈": 6829,
      "铉": 6830,
      "铊": 6831,
      "铋": 6832,
      "铌": 6833,
      "铍": 6834,
      "铎": 6835,
      "铏": 6836,
      "铐": 6837,
      "铑": 6838,
      "铒": 6839,
      "铓": 6840,
      "铕": 6841,
      "铖": 6842,
      "铗": 6843,
      "铙": 6844,
      "铚": 6845,
      "铛": 6846,
      "铜": 6847,
      "铝": 6848,
      "铟": 6849,
      "铠": 6850,
      "铡": 6851,
      "铢": 6852,
      "铣": 6853,
      "铤": 6854,
      "铥": 6855,
      "铦": 6856,
      "铧": 6857,
      "铨": 6858,
      "铩": 6859,
      "铪": 6860,
      "铫": 6861,
      "铬": 6862,
      "铭": 6863,
      "铮": 6864,
      "铯": 6865,
      "铰": 6866,
      "铱": 6867,
      "铲": 6868,
      "铳": 6869,
      "铵": 6870,
      "银": 6871,
      "铷": 6872,
      "铸": 6873,
      "铺": 6874,
      "铼": 6875,
      "铽": 6876,
      "链": 6877,
      "铿": 6878,
      "销": 6879,
      "锁": 6880,
      "锂": 6881,
      "锃": 6882,
      "锄": 6883,
      "锅": 6884,
      "锆": 6885,
      "锇": 6886,
      "锈": 6887,
      "锉": 6888,
      "锋": 6889,
      "锌": 6890,
      "锍": 6891,
      "锏": 6892,
      "锐": 6893,
      "锑": 6894,
      "锒": 6895,
      "锔": 6896,
      "锕": 6897,
      "锖": 6898,
      "锗": 6899,
      "错": 6900,
      "锚": 6901,
      "锛": 6902,
      "锜": 6903,
      "锝": 6904,
      "锟": 6905,
      "锡": 6906,
      "锢": 6907,
      "锣": 6908,
      "锤": 6909,
      "锥": 6910,
      "锦": 6911,
      "锨": 6912,
      "锫": 6913,
      "锭": 6914,
      "键": 6915,
      "锯": 6916,
      "锰": 6917,
      "锱": 6918,
      "锲": 6919,
      "锳": 6920,
      "锴": 6921,
      "锵": 6922,
      "锶": 6923,
      "锷": 6924,
      "锸": 6925,
      "锹": 6926,
      "锺": 6927,
      "锻": 6928,
      "锽": 6929,
      "锾": 6930,
      "镀": 6931,
      "镁": 6932,
      "镂": 6933,
      "镃": 6934,
      "镄": 6935,
      "镅": 6936,
      "镆": 6937,
      "镇": 6938,
      "镈": 6939,
      "镉": 6940,
      "镊": 6941,
      "镌": 6942,
      "镍": 6943,
      "镎": 6944,
      "镏": 6945,
      "镐": 6946,
      "镑": 6947,
      "镒": 6948,
      "镓": 6949,
      "镔": 6950,
      "镕": 6951,
      "镖": 6952,
      "镗": 6953,
      "镘": 6954,
      "镚": 6955,
      "镛": 6956,
      "镜": 6957,
      "镝": 6958,
      "镞": 6959,
      "镠": 6960,
      "镡": 6961,
      "镢": 6962,
      "镣": 6963,
      "镦": 6964,
      "镧": 6965,
      "镨": 6966,
      "镪": 6967,
      "镫": 6968,
      "镬": 6969,
      "镭": 6970,
      "镯": 6971,
      "镰": 6972,
      "镱": 6973,
      "镲": 6974,
      "镳": 6975,
      "镶": 6976,
      "长": 6977,
      "閟": 6978,
      "関": 6979,
      "閦": 6980,
      "閧": 6981,
      "闘": 6982,
      "门": 6983,
      "闩": 6984,
      "闪": 6985,
      "闫": 6986,
      "闭": 6987,
      "问": 6988,
      "闯": 6989,
      "闰": 6990,
      "闱": 6991,
      "闲": 6992,
      "闳": 6993,
      "间": 6994,
      "闵": 6995,
      "闷": 6996,
      "闸": 6997,
      "闹": 6998,
      "闺": 6999,
      "闻": 7000,
      "闼": 7001,
      "闽": 7002,
      "闾": 7003,
      "闿": 7004,
      "阀": 7005,
      "阁": 7006,
      "阂": 7007,
      "阃": 7008,
      "阄": 7009,
      "阅": 7010,
      "阆": 7011,
      "阇": 7012,
      "阈": 7013,
      "阉": 7014,
      "阊": 7015,
      "阋": 7016,
      "阌": 7017,
      "阍": 7018,
      "阎": 7019,
      "阏": 7020,
      "阐": 7021,
      "阑": 7022,
      "阒": 7023,
      "阔": 7024,
      "阕": 7025,
      "阖": 7026,
      "阗": 7027,
      "阙": 7028,
      "阚": 7029,
      "阜": 7030,
      "阝": 7031,
      "队": 7032,
      "阡": 7033,
      "阪": 7034,
      "阮": 7035,
      "阯": 7036,
      "阱": 7037,
      "防": 7038,
      "阳": 7039,
      "阴": 7040,
      "阵": 7041,
      "阶": 7042,
      "阻": 7043,
      "阼": 7044,
      "阿": 7045,
      "陀": 7046,
      "陂": 7047,
      "附": 7048,
      "际": 7049,
      "陆": 7050,
      "陇": 7051,
      "陈": 7052,
      "陉": 7053,
      "陋": 7054,
      "陌": 7055,
      "降": 7056,
      "限": 7057,
      "陔": 7058,
      "陕": 7059,
      "陛": 7060,
      "陜": 7061,
      "陟": 7062,
      "陡": 7063,
      "院": 7064,
      "除": 7065,
      "陨": 7066,
      "险": 7067,
      "陪": 7068,
      "陬": 7069,
      "陲": 7070,
      "陴": 7071,
      "陵": 7072,
      "陶": 7073,
      "陷": 7074,
      "険": 7075,
      "隂": 7076,
      "隅": 7077,
      "隆": 7078,
      "隈": 7079,
      "隋": 7080,
      "隍": 7081,
      "随": 7082,
      "隐": 7083,
      "隔": 7084,
      "隗": 7085,
      "隘": 7086,
      "隙": 7087,
      "障": 7088,
      "隞": 7089,
      "隠": 7090,
      "隡": 7091,
      "隣": 7092,
      "隧": 7093,
      "隰": 7094,
      "隳": 7095,
      "隶": 7096,
      "隷": 7097,
      "隹": 7098,
      "隼": 7099,
      "隽": 7100,
      "难": 7101,
      "雀": 7102,
      "雁": 7103,
      "雄": 7104,
      "雅": 7105,
      "集": 7106,
      "雇": 7107,
      "雉": 7108,
      "雌": 7109,
      "雍": 7110,
      "雎": 7111,
      "雏": 7112,
      "雑": 7113,
      "雒": 7114,
      "雕": 7115,
      "雠": 7116,
      "雨": 7117,
      "雩": 7118,
      "雪": 7119,
      "雫": 7120,
      "雯": 7121,
      "雳": 7122,
      "零": 7123,
      "雷": 7124,
      "雹": 7125,
      "雾": 7126,
      "雿": 7127,
      "需": 7128,
      "霁": 7129,
      "霂": 7130,
      "霄": 7131,
      "霅": 7132,
      "霆": 7133,
      "震": 7134,
      "霈": 7135,
      "霉": 7136,
      "霊": 7137,
      "霍": 7138,
      "霎": 7139,
      "霏": 7140,
      "霑": 7141,
      "霓": 7142,
      "霖": 7143,
      "霜": 7144,
      "霞": 7145,
      "霪": 7146,
      "霭": 7147,
      "霰": 7148,
      "露": 7149,
      "霸": 7150,
      "霹": 7151,
      "霾": 7152,
      "靑": 7153,
      "青": 7154,
      "靓": 7155,
      "靖": 7156,
      "靘": 7157,
      "静": 7158,
      "靛": 7159,
      "非": 7160,
      "靠": 7161,
      "靡": 7162,
      "面": 7163,
      "靥": 7164,
      "革": 7165,
      "靬": 7166,
      "靳": 7167,
      "靴": 7168,
      "靶": 7169,
      "靺": 7170,
      "靼": 7171,
      "靽": 7172,
      "鞅": 7173,
      "鞋": 7174,
      "鞍": 7175,
      "鞑": 7176,
      "鞘": 7177,
      "鞞": 7178,
      "鞠": 7179,
      "鞣": 7180,
      "鞨": 7181,
      "鞫": 7182,
      "鞬": 7183,
      "鞭": 7184,
      "鞮": 7185,
      "鞯": 7186,
      "韏": 7187,
      "韐": 7188,
      "韡": 7189,
      "韦": 7190,
      "韧": 7191,
      "韩": 7192,
      "韪": 7193,
      "韫": 7194,
      "韬": 7195,
      "韭": 7196,
      "音": 7197,
      "韵": 7198,
      "韶": 7199,
      "頔": 7200,
      "頝": 7201,
      "頞": 7202,
      "頠": 7203,
      "頧": 7204,
      "頼": 7205,
      "页": 7206,
      "顶": 7207,
      "顷": 7208,
      "项": 7209,
      "顺": 7210,
      "须": 7211,
      "顼": 7212,
      "顽": 7213,
      "顾": 7214,
      "顿": 7215,
      "颀": 7216,
      "颁": 7217,
      "颂": 7218,
      "颃": 7219,
      "预": 7220,
      "颅": 7221,
      "领": 7222,
      "颇": 7223,
      "颈": 7224,
      "颉": 7225,
      "颊": 7226,
      "颋": 7227,
      "颌": 7228,
      "颍": 7229,
      "颎": 7230,
      "颏": 7231,
      "颐": 7232,
      "频": 7233,
      "颓": 7234,
      "颔": 7235,
      "颖": 7236,
      "颗": 7237,
      "题": 7238,
      "颙": 7239,
      "颚": 7240,
      "颛": 7241,
      "颜": 7242,
      "额": 7243,
      "颞": 7244,
      "颠": 7245,
      "颡": 7246,
      "颢": 7247,
      "颤": 7248,
      "颦": 7249,
      "颧": 7250,
      "颲": 7251,
      "风": 7252,
      "飏": 7253,
      "飐": 7254,
      "飑": 7255,
      "飒": 7256,
      "飓": 7257,
      "飕": 7258,
      "飖": 7259,
      "飘": 7260,
      "飙": 7261,
      "飚": 7262,
      "飞": 7263,
      "食": 7264,
      "飧": 7265,
      "飨": 7266,
      "餈": 7267,
      "餍": 7268,
      "餐": 7269,
      "餮": 7270,
      "饔": 7271,
      "饕": 7272,
      "饣": 7273,
      "饥": 7274,
      "饧": 7275,
      "饨": 7276,
      "饩": 7277,
      "饪": 7278,
      "饫": 7279,
      "饬": 7280,
      "饭": 7281,
      "饮": 7282,
      "饯": 7283,
      "饰": 7284,
      "饱": 7285,
      "饲": 7286,
      "饴": 7287,
      "饵": 7288,
      "饶": 7289,
      "饷": 7290,
      "饸": 7291,
      "饹": 7292,
      "饺": 7293,
      "饼": 7294,
      "饽": 7295,
      "饿": 7296,
      "馀": 7297,
      "馁": 7298,
      "馃": 7299,
      "馄": 7300,
      "馅": 7301,
      "馆": 7302,
      "馈": 7303,
      "馊": 7304,
      "馋": 7305,
      "馍": 7306,
      "馏": 7307,
      "馐": 7308,
      "馑": 7309,
      "馒": 7310,
      "馓": 7311,
      "馔": 7312,
      "馕": 7313,
      "首": 7314,
      "馗": 7315,
      "馘": 7316,
      "香": 7317,
      "馥": 7318,
      "馨": 7319,
      "駄": 7320,
      "駅": 7321,
      "駆": 7322,
      "騒": 7323,
      "験": 7324,
      "驒": 7325,
      "驩": 7326,
      "马": 7327,
      "驭": 7328,
      "驮": 7329,
      "驯": 7330,
      "驰": 7331,
      "驱": 7332,
      "驳": 7333,
      "驴": 7334,
      "驶": 7335,
      "驷": 7336,
      "驸": 7337,
      "驹": 7338,
      "驺": 7339,
      "驻": 7340,
      "驼": 7341,
      "驽": 7342,
      "驾": 7343,
      "驿": 7344,
      "骀": 7345,
      "骁": 7346,
      "骂": 7347,
      "骃": 7348,
      "骄": 7349,
      "骅": 7350,
      "骆": 7351,
      "骇": 7352,
      "骈": 7353,
      "骊": 7354,
      "骋": 7355,
      "验": 7356,
      "骍": 7357,
      "骎": 7358,
      "骏": 7359,
      "骐": 7360,
      "骑": 7361,
      "骓": 7362,
      "骕": 7363,
      "骖": 7364,
      "骗": 7365,
      "骘": 7366,
      "骙": 7367,
      "骚": 7368,
      "骛": 7369,
      "骜": 7370,
      "骝": 7371,
      "骞": 7372,
      "骟": 7373,
      "骠": 7374,
      "骡": 7375,
      "骢": 7376,
      "骤": 7377,
      "骥": 7378,
      "骧": 7379,
      "骨": 7380,
      "骰": 7381,
      "骶": 7382,
      "骷": 7383,
      "骸": 7384,
      "骺": 7385,
      "骼": 7386,
      "髀": 7387,
      "髁": 7388,
      "髂": 7389,
      "髅": 7390,
      "髋": 7391,
      "髌": 7392,
      "髎": 7393,
      "髑": 7394,
      "髓": 7395,
      "高": 7396,
      "髙": 7397,
      "髡": 7398,
      "髣": 7399,
      "髦": 7400,
      "髪": 7401,
      "髫": 7402,
      "髭": 7403,
      "髯": 7404,
      "髹": 7405,
      "髻": 7406,
      "鬃": 7407,
      "鬈": 7408,
      "鬓": 7409,
      "鬘": 7410,
      "鬟": 7411,
      "鬣": 7412,
      "鬭": 7413,
      "鬯": 7414,
      "鬲": 7415,
      "鬻": 7416,
      "鬼": 7417,
      "魁": 7418,
      "魂": 7419,
      "魃": 7420,
      "魄": 7421,
      "魅": 7422,
      "魇": 7423,
      "魈": 7424,
      "魉": 7425,
      "魋": 7426,
      "魍": 7427,
      "魏": 7428,
      "魑": 7429,
      "魔": 7430,
      "魮": 7431,
      "鮀": 7432,
      "鮈": 7433,
      "鮠": 7434,
      "鮡": 7435,
      "鮨": 7436,
      "鯙": 7437,
      "鱀": 7438,
      "鱬": 7439,
      "鱼": 7440,
      "鱿": 7441,
      "鲀": 7442,
      "鲁": 7443,
      "鲂": 7444,
      "鲃": 7445,
      "鲅": 7446,
      "鲆": 7447,
      "鲇": 7448,
      "鲈": 7449,
      "鲉": 7450,
      "鲊": 7451,
      "鲋": 7452,
      "鲌": 7453,
      "鲍": 7454,
      "鲎": 7455,
      "鲐": 7456,
      "鲑": 7457,
      "鲔": 7458,
      "鲕": 7459,
      "鲗": 7460,
      "鲘": 7461,
      "鲙": 7462,
      "鲚": 7463,
      "鲛": 7464,
      "鲜": 7465,
      "鲞": 7466,
      "鲟": 7467,
      "鲠": 7468,
      "鲡": 7469,
      "鲢": 7470,
      "鲣": 7471,
      "鲤": 7472,
      "鲥": 7473,
      "鲦": 7474,
      "鲧": 7475,
      "鲨": 7476,
      "鲩": 7477,
      "鲫": 7478,
      "鲭": 7479,
      "鲮": 7480,
      "鲱": 7481,
      "鲲": 7482,
      "鲳": 7483,
      "鲴": 7484,
      "鲵": 7485,
      "鲶": 7486,
      "鲷": 7487,
      "鲸": 7488,
      "鲹": 7489,
      "鲻": 7490,
      "鲼": 7491,
      "鲽": 7492,
      "鲿": 7493,
      "鳀": 7494,
      "鳃": 7495,
      "鳄": 7496,
      "鳅": 7497,
      "鳇": 7498,
      "鳉": 7499,
      "鳊": 7500,
      "鳌": 7501,
      "鳍": 7502,
      "鳎": 7503,
      "鳏": 7504,
      "鳐": 7505,
      "鳓": 7506,
      "鳔": 7507,
      "鳕": 7508,
      "鳖": 7509,
      "鳗": 7510,
      "鳙": 7511,
      "鳚": 7512,
      "鳜": 7513,
      "鳝": 7514,
      "鳞": 7515,
      "鳟": 7516,
      "鳢": 7517,
      "鳣": 7518,
      "鳯": 7519,
      "鴈": 7520,
      "鵙": 7521,
      "鷟": 7522,
      "鸑": 7523,
      "鸟": 7524,
      "鸠": 7525,
      "鸡": 7526,
      "鸢": 7527,
      "鸣": 7528,
      "鸥": 7529,
      "鸦": 7530,
      "鸨": 7531,
      "鸩": 7532,
      "鸪": 7533,
      "鸫": 7534,
      "鸬": 7535,
      "鸭": 7536,
      "鸮": 7537,
      "鸯": 7538,
      "鸰": 7539,
      "鸱": 7540,
      "鸲": 7541,
      "鸳": 7542,
      "鸵": 7543,
      "鸶": 7544,
      "鸷": 7545,
      "鸸": 7546,
      "鸹": 7547,
      "鸺": 7548,
      "鸻": 7549,
      "鸽": 7550,
      "鸾": 7551,
      "鸿": 7552,
      "鹀": 7553,
      "鹁": 7554,
      "鹂": 7555,
      "鹃": 7556,
      "鹄": 7557,
      "鹅": 7558,
      "鹆": 7559,
      "鹇": 7560,
      "鹈": 7561,
      "鹉": 7562,
      "鹊": 7563,
      "鹋": 7564,
      "鹌": 7565,
      "鹍": 7566,
      "鹎": 7567,
      "鹏": 7568,
      "鹑": 7569,
      "鹓": 7570,
      "鹖": 7571,
      "鹗": 7572,
      "鹘": 7573,
      "鹚": 7574,
      "鹛": 7575,
      "鹜": 7576,
      "鹞": 7577,
      "鹟": 7578,
      "鹡": 7579,
      "鹢": 7580,
      "鹣": 7581,
      "鹤": 7582,
      "鹦": 7583,
      "鹧": 7584,
      "鹨": 7585,
      "鹩": 7586,
      "鹪": 7587,
      "鹫": 7588,
      "鹬": 7589,
      "鹭": 7590,
      "鹮": 7591,
      "鹰": 7592,
      "鹱": 7593,
      "鹳": 7594,
      "鹿": 7595,
      "麂": 7596,
      "麇": 7597,
      "麈": 7598,
      "麋": 7599,
      "麐": 7600,
      "麒": 7601,
      "麓": 7602,
      "麝": 7603,
      "麟": 7604,
      "麤": 7605,
      "麦": 7606,
      "麸": 7607,
      "麹": 7608,
      "麻": 7609,
      "麾": 7610,
      "麿": 7611,
      "黄": 7612,
      "黉": 7613,
      "黍": 7614,
      "黎": 7615,
      "黏": 7616,
      "黑": 7617,
      "黒": 7618,
      "黔": 7619,
      "默": 7620,
      "黙": 7621,
      "黛": 7622,
      "黜": 7623,
      "黝": 7624,
      "黟": 7625,
      "黠": 7626,
      "黢": 7627,
      "黥": 7628,
      "黧": 7629,
      "黩": 7630,
      "黯": 7631,
      "黻": 7632,
      "黼": 7633,
      "黾": 7634,
      "鼋": 7635,
      "鼍": 7636,
      "鼎": 7637,
      "鼐": 7638,
      "鼓": 7639,
      "鼗": 7640,
      "鼙": 7641,
      "鼠": 7642,
      "鼢": 7643,
      "鼩": 7644,
      "鼬": 7645,
      "鼯": 7646,
      "鼱": 7647,
      "鼷": 7648,
      "鼹": 7649,
      "鼻": 7650,
      "鼾": 7651,
      "齁": 7652,
      "齐": 7653,
      "齑": 7654,
      "齿": 7655,
      "龀": 7656,
      "龃": 7657,
      "龄": 7658,
      "龅": 7659,
      "龇": 7660,
      "龈": 7661,
      "龉": 7662,
      "龊": 7663,
      "龋": 7664,
      "龌": 7665,
      "龙": 7666,
      "龚": 7667,
      "龛": 7668,
      "龟": 7669,
      "龠": 7670,
      "龢": 7671,
      "！": 7672,
      "（": 7673,
      "）": 7674,
      "，": 7675,
      "．": 7676,
      "：": 7677,
      "；": 7678,
      "？": 7679,
      "00": 7680,
      "01": 7681,
      "02": 7682,
      "03": 7683,
      "04": 7684,
      "05": 7685,
      "06": 7686,
      "07": 7687,
      "08": 7688,
      "09": 7689,
      "0l": 7690,
      "0t": 7691,
      "10": 7692,
      "11": 7693,
      "12": 7694,
      "13": 7695,
      "14": 7696,
      "15": 7697,
      "16": 7698,
      "17": 7699,
      "18": 7700,
      "19": 7701,
      "1a": 7702,
      "1b": 7703,
      "1g": 7704,
      "1m": 7705,
      "1v": 7706,
      "20": 7707,
      "21": 7708,
      "22": 7709,
      "23": 7710,
      "24": 7711,
      "25": 7712,
      "26": 7713,
      "27": 7714,
      "28": 7715,
      "29": 7716,
      "2a": 7717,
      "2b": 7718,
      "2d": 7719,
      "2g": 7720,
      "2k": 7721,
      "2l": 7722,
      "2m": 7723,
      "30": 7724,
      "31": 7725,
      "32": 7726,
      "33": 7727,
      "34": 7728,
      "35": 7729,
      "36": 7730,
      "37": 7731,
      "38": 7732,
      "39": 7733,
      "3a": 7734,
      "3c": 7735,
      "3d": 7736,
      "3g": 7737,
      "3m": 7738,
      "3p": 7739,
      "3s": 7740,
      "3t": 7741,
      "40": 7742,
      "41": 7743,
      "42": 7744,
      "43": 7745,
      "44": 7746,
      "45": 7747,
      "46": 7748,
      "47": 7749,
      "48": 7750,
      "49": 7751,
      "4a": 7752,
      "4d": 7753,
      "4g": 7754,
      "4k": 7755,
      "4l": 7756,
      "4m": 7757,
      "4s": 7758,
      "50": 7759,
      "51": 7760,
      "52": 7761,
      "53": 7762,
      "54": 7763,
      "55": 7764,
      "56": 7765,
      "57": 7766,
      "58": 7767,
      "59": 7768,
      "5a": 7769,
      "5c": 7770,
      "5d": 7771,
      "5g": 7772,
      "5k": 7773,
      "5l": 7774,
      "5m": 7775,
      "5s": 7776,
      "5t": 7777,
      "5v": 7778,
      "60": 7779,
      "61": 7780,
      "62": 7781,
      "63": 7782,
      "64": 7783,
      "65": 7784,
      "66": 7785,
      "67": 7786,
      "68": 7787,
      "69": 7788,
      "6a": 7789,
      "6g": 7790,
      "6l": 7791,
      "6m": 7792,
      "6p": 7793,
      "6s": 7794,
      "70": 7795,
      "71": 7796,
      "72": 7797,
      "73": 7798,
      "74": 7799,
      "75": 7800,
      "76": 7801,
      "77": 7802,
      "78": 7803,
      "79": 7804,
      "80": 7805,
      "81": 7806,
      "82": 7807,
      "83": 7808,
      "84": 7809,
      "85": 7810,
      "86": 7811,
      "87": 7812,
      "88": 7813,
      "89": 7814,
      "8g": 7815,
      "8k": 7816,
      "90": 7817,
      "91": 7818,
      "92": 7819,
      "93": 7820,
      "94": 7821,
      "95": 7822,
      "96": 7823,
      "97": 7824,
      "98": 7825,
      "99": 7826,
      "a1": 7827,
      "a2": 7828,
      "a3": 7829,
      "a4": 7830,
      "a5": 7831,
      "a6": 7832,
      "a7": 7833,
      "a8": 7834,
      "a9": 7835,
      "aa": 7836,
      "ab": 7837,
      "ac": 7838,
      "ad": 7839,
      "ae": 7840,
      "af": 7841,
      "ag": 7842,
      "ah": 7843,
      "ai": 7844,
      "ak": 7845,
      "al": 7846,
      "am": 7847,
      "an": 7848,
      "ap": 7849,
      "ar": 7850,
      "as": 7851,
      "at": 7852,
      "au": 7853,
      "av": 7854,
      "b1": 7855,
      "b2": 7856,
      "b3": 7857,
      "b5": 7858,
      "b6": 7859,
      "ba": 7860,
      "bb": 7861,
      "bc": 7862,
      "bd": 7863,
      "be": 7864,
      "bh": 7865,
      "bi": 7866,
      "bl": 7867,
      "bo": 7868,
      "bp": 7869,
      "br": 7870,
      "bt": 7871,
      "by": 7872,
      "c1": 7873,
      "c2": 7874,
      "c3": 7875,
      "c4": 7876,
      "c5": 7877,
      "ca": 7878,
      "cb": 7879,
      "cc": 7880,
      "cd": 7881,
      "ce": 7882,
      "cf": 7883,
      "cg": 7884,
      "ch": 7885,
      "ci": 7886,
      "cj": 7887,
      "ck": 7888,
      "cl": 7889,
      "cm": 7890,
      "cn": 7891,
      "co": 7892,
      "cp": 7893,
      "cr": 7894,
      "cs": 7895,
      "ct": 7896,
      "cv": 7897,
      "cx": 7898,
      "d1": 7899,
      "d2": 7900,
      "d3": 7901,
      "d5": 7902,
      "da": 7903,
      "db": 7904,
      "dc": 7905,
      "dd": 7906,
      "de": 7907,
      "di": 7908,
      "dj": 7909,
      "dl": 7910,
      "dm": 7911,
      "do": 7912,
      "dr": 7913,
      "ds": 7914,
      "dt": 7915,
      "du": 7916,
      "dv": 7917,
      "dx": 7918,
      "e1": 7919,
      "e2": 7920,
      "e3": 7921,
      "e5": 7922,
      "e6": 7923,
      "e7": 7924,
      "ea": 7925,
      "eb": 7926,
      "ec": 7927,
      "ed": 7928,
      "ee": 7929,
      "ef": 7930,
      "el": 7931,
      "em": 7932,
      "en": 7933,
      "ep": 7934,
      "eq": 7935,
      "er": 7936,
      "es": 7937,
      "et": 7938,
      "ev": 7939,
      "ex": 7940,
      "f1": 7941,
      "f2": 7942,
      "f3": 7943,
      "f4": 7944,
      "f5": 7945,
      "fa": 7946,
      "fb": 7947,
      "fc": 7948,
      "fe": 7949,
      "ff": 7950,
      "fi": 7951,
      "fm": 7952,
      "ft": 7953,
      "fu": 7954,
      "fx": 7955,
      "g1": 7956,
      "g2": 7957,
      "g3": 7958,
      "g5": 7959,
      "g6": 7960,
      "g7": 7961,
      "g9": 7962,
      "ga": 7963,
      "gb": 7964,
      "gc": 7965,
      "gd": 7966,
      "ge": 7967,
      "gg": 7968,
      "gi": 7969,
      "gl": 7970,
      "gm": 7971,
      "go": 7972,
      "gp": 7973,
      "gs": 7974,
      "gt": 7975,
      "h1": 7976,
      "h2": 7977,
      "h5": 7978,
      "h6": 7979,
      "ha": 7980,
      "hd": 7981,
      "he": 7982,
      "hi": 7983,
      "hk": 7984,
      "ho": 7985,
      "hp": 7986,
      "hr": 7987,
      "hu": 7988,
      "i3": 7989,
      "i5": 7990,
      "i7": 7991,
      "ib": 7992,
      "ic": 7993,
      "id": 7994,
      "ie": 7995,
      "if": 7996,
      "ig": 7997,
      "ii": 7998,
      "il": 7999,
      "im": 8000,
      "in": 8001,
      "io": 8002,
      "ip": 8003,
      "iq": 8004,
      "ir": 8005,
      "is": 8006,
      "it": 8007,
      "iu": 8008,
      "iv": 8009,
      "jb": 8010,
      "ji": 8011,
      "jj": 8012,
      "jo": 8013,
      "jp": 8014,
      "jr": 8015,
      "js": 8016,
      "k2": 8017,
      "ka": 8018,
      "kb": 8019,
      "kd": 8020,
      "kg": 8021,
      "kk": 8022,
      "kl": 8023,
      "km": 8024,
      "ko": 8025,
      "ky": 8026,
      "l1": 8027,
      "l2": 8028,
      "la": 8029,
      "lc": 8030,
      "le": 8031,
      "lg": 8032,
      "li": 8033,
      "ll": 8034,
      "lo": 8035,
      "lp": 8036,
      "lt": 8037,
      "lu": 8038,
      "lv": 8039,
      "ly": 8040,
      "lz": 8041,
      "m1": 8042,
      "m2": 8043,
      "m3": 8044,
      "m4": 8045,
      "m5": 8046,
      "m8": 8047,
      "ma": 8048,
      "mb": 8049,
      "mc": 8050,
      "md": 8051,
      "me": 8052,
      "mg": 8053,
      "mi": 8054,
      "mk": 8055,
      "ml": 8056,
      "mm": 8057,
      "mo": 8058,
      "mp": 8059,
      "mr": 8060,
      "ms": 8061,
      "mt": 8062,
      "mu": 8063,
      "mv": 8064,
      "mx": 8065,
      "my": 8066,
      "n1": 8067,
      "n2": 8068,
      "n3": 8069,
      "na": 8070,
      "nb": 8071,
      "nc": 8072,
      "ne": 8073,
      "ng": 8074,
      "ni": 8075,
      "no": 8076,
      "np": 8077,
      "ns": 8078,
      "nt": 8079,
      "nu": 8080,
      "oa": 8081,
      "ob": 8082,
      "of": 8083,
      "oh": 8084,
      "ok": 8085,
      "ol": 8086,
      "on": 8087,
      "oo": 8088,
      "op": 8089,
      "or": 8090,
      "os": 8091,
      "p1": 8092,
      "p2": 8093,
      "p3": 8094,
      "p9": 8095,
      "pa": 8096,
      "pc": 8097,
      "pd": 8098,
      "pe": 8099,
      "pg": 8100,
      "ph": 8101,
      "pi": 8102,
      "pk": 8103,
      "pm": 8104,
      "po": 8105,
      "pp": 8106,
      "pr": 8107,
      "ps": 8108,
      "pt": 8109,
      "pu": 8110,
      "pv": 8111,
      "q1": 8112,
      "q2": 8113,
      "q3": 8114,
      "q4": 8115,
      "q5": 8116,
      "q7": 8117,
      "qa": 8118,
      "qe": 8119,
      "qi": 8120,
      "qq": 8121,
      "qr": 8122,
      "qs": 8123,
      "qt": 8124,
      "r1": 8125,
      "r2": 8126,
      "r8": 8127,
      "r9": 8128,
      "ra": 8129,
      "rc": 8130,
      "rd": 8131,
      "re": 8132,
      "rf": 8133,
      "rm": 8134,
      "rn": 8135,
      "ro": 8136,
      "rp": 8137,
      "rq": 8138,
      "rs": 8139,
      "rt": 8140,
      "ru": 8141,
      "rx": 8142,
      "s1": 8143,
      "s2": 8144,
      "s3": 8145,
      "s4": 8146,
      "s5": 8147,
      "s6": 8148,
      "s7": 8149,
      "s8": 8150,
      "sa": 8151,
      "sb": 8152,
      "sc": 8153,
      "sd": 8154,
      "se": 8155,
      "sf": 8156,
      "sg": 8157,
      "sh": 8158,
      "si": 8159,
      "sk": 8160,
      "sm": 8161,
      "so": 8162,
      "sp": 8163,
      "sr": 8164,
      "ss": 8165,
      "st": 8166,
      "su": 8167,
      "t1": 8168,
      "t2": 8169,
      "t3": 8170,
      "ta": 8171,
      "tb": 8172,
      "tc": 8173,
      "td": 8174,
      "te": 8175,
      "tf": 8176,
      "ti": 8177,
      "tm": 8178,
      "to": 8179,
      "ts": 8180,
      "tt": 8181,
      "tv": 8182,
      "tw": 8183,
      "ua": 8184,
      "uc": 8185,
      "ui": 8186,
      "uk": 8187,
      "ul": 8188,
      "up": 8189,
      "us": 8190,
      "uv": 8191,
      "v1": 8192,
      "v2": 8193,
      "v3": 8194,
      "v4": 8195,
      "v5": 8196,
      "v6": 8197,
      "v8": 8198,
      "v9": 8199,
      "va": 8200,
      "vc": 8201,
      "ve": 8202,
      "vi": 8203,
      "vm": 8204,
      "vr": 8205,
      "vs": 8206,
      "wd": 8207,
      "we": 8208,
      "wi": 8209,
      "wp": 8210,
      "wu": 8211,
      "ww": 8212,
      "x1": 8213,
      "x2": 8214,
      "x3": 8215,
      "x4": 8216,
      "x5": 8217,
      "x6": 8218,
      "x7": 8219,
      "x9": 8220,
      "xa": 8221,
      "xd": 8222,
      "xi": 8223,
      "xl": 8224,
      "xp": 8225,
      "xr": 8226,
      "xx": 8227,
      "xz": 8228,
      "ya": 8229,
      "yi": 8230,
      "yu": 8231,
      "yy": 8232,
      "z2": 8233,
      "zh": 8234,
      "000": 8235,
      "001": 8236,
      "002": 8237,
      "003": 8238,
      "004": 8239,
      "005": 8240,
      "006": 8241,
      "007": 8242,
      "008": 8243,
      "009": 8244,
      "010": 8245,
      "011": 8246,
      "012": 8247,
      "013": 8248,
      "015": 8249,
      "019": 8250,
      "020": 8251,
      "021": 8252,
      "022": 8253,
      "023": 8254,
      "024": 8255,
      "025": 8256,
      "027": 8257,
      "028": 8258,
      "029": 8259,
      "050": 8260,
      "055": 8261,
      "061": 8262,
      "073": 8263,
      "074": 8264,
      "075": 8265,
      "080": 8266,
      "0mm": 8267,
      "100": 8268,
      "101": 8269,
      "102": 8270,
      "103": 8271,
      "104": 8272,
      "105": 8273,
      "106": 8274,
      "107": 8275,
      "108": 8276,
      "109": 8277,
      "10g": 8278,
      "110": 8279,
      "111": 8280,
      "112": 8281,
      "113": 8282,
      "114": 8283,
      "115": 8284,
      "116": 8285,
      "117": 8286,
      "118": 8287,
      "119": 8288,
      "120": 8289,
      "121": 8290,
      "122": 8291,
      "123": 8292,
      "124": 8293,
      "125": 8294,
      "126": 8295,
      "127": 8296,
      "128": 8297,
      "129": 8298,
      "130": 8299,
      "131": 8300,
      "132": 8301,
      "133": 8302,
      "134": 8303,
      "135": 8304,
      "136": 8305,
      "137": 8306,
      "138": 8307,
      "139": 8308,
      "140": 8309,
      "141": 8310,
      "142": 8311,
      "143": 8312,
      "144": 8313,
      "145": 8314,
      "146": 8315,
      "147": 8316,
      "148": 8317,
      "149": 8318,
      "14k": 8319,
      "150": 8320,
      "151": 8321,
      "152": 8322,
      "153": 8323,
      "154": 8324,
      "155": 8325,
      "156": 8326,
      "157": 8327,
      "158": 8328,
      "159": 8329,
      "15g": 8330,
      "160": 8331,
      "161": 8332,
      "162": 8333,
      "163": 8334,
      "164": 8335,
      "165": 8336,
      "166": 8337,
      "167": 8338,
      "168": 8339,
      "169": 8340,
      "16g": 8341,
      "170": 8342,
      "171": 8343,
      "172": 8344,
      "173": 8345,
      "174": 8346,
      "175": 8347,
      "176": 8348,
      "177": 8349,
      "178": 8350,
      "179": 8351,
      "180": 8352,
      "181": 8353,
      "182": 8354,
      "183": 8355,
      "184": 8356,
      "185": 8357,
      "186": 8358,
      "187": 8359,
      "188": 8360,
      "189": 8361,
      "18k": 8362,
      "190": 8363,
      "191": 8364,
      "192": 8365,
      "193": 8366,
      "194": 8367,
      "195": 8368,
      "196": 8369,
      "197": 8370,
      "198": 8371,
      "199": 8372,
      "1gb": 8373,
      "1tb": 8374,
      "200": 8375,
      "201": 8376,
      "202": 8377,
      "203": 8378,
      "204": 8379,
      "205": 8380,
      "206": 8381,
      "207": 8382,
      "208": 8383,
      "209": 8384,
      "20g": 8385,
      "210": 8386,
      "211": 8387,
      "212": 8388,
      "213": 8389,
      "214": 8390,
      "215": 8391,
      "216": 8392,
      "217": 8393,
      "218": 8394,
      "219": 8395,
      "220": 8396,
      "221": 8397,
      "222": 8398,
      "223": 8399,
      "224": 8400,
      "225": 8401,
      "226": 8402,
      "227": 8403,
      "228": 8404,
      "229": 8405,
      "230": 8406,
      "231": 8407,
      "232": 8408,
      "233": 8409,
      "234": 8410,
      "235": 8411,
      "236": 8412,
      "237": 8413,
      "238": 8414,
      "239": 8415,
      "240": 8416,
      "241": 8417,
      "242": 8418,
      "243": 8419,
      "244": 8420,
      "245": 8421,
      "246": 8422,
      "247": 8423,
      "248": 8424,
      "249": 8425,
      "24h": 8426,
      "250": 8427,
      "251": 8428,
      "252": 8429,
      "253": 8430,
      "254": 8431,
      "255": 8432,
      "256": 8433,
      "257": 8434,
      "258": 8435,
      "259": 8436,
      "260": 8437,
      "261": 8438,
      "262": 8439,
      "263": 8440,
      "264": 8441,
      "265": 8442,
      "266": 8443,
      "267": 8444,
      "268": 8445,
      "269": 8446,
      "270": 8447,
      "271": 8448,
      "272": 8449,
      "273": 8450,
      "274": 8451,
      "275": 8452,
      "276": 8453,
      "277": 8454,
      "278": 8455,
      "279": 8456,
      "280": 8457,
      "281": 8458,
      "282": 8459,
      "283": 8460,
      "284": 8461,
      "285": 8462,
      "286": 8463,
      "287": 8464,
      "288": 8465,
      "289": 8466,
      "290": 8467,
      "291": 8468,
      "292": 8469,
      "293": 8470,
      "294": 8471,
      "295": 8472,
      "296": 8473,
      "297": 8474,
      "298": 8475,
      "299": 8476,
      "2cm": 8477,
      "2gb": 8478,
      "2mm": 8479,
      "300": 8480,
      "301": 8481,
      "302": 8482,
      "303": 8483,
      "304": 8484,
      "305": 8485,
      "306": 8486,
      "307": 8487,
      "308": 8488,
      "309": 8489,
      "30g": 8490,
      "310": 8491,
      "311": 8492,
      "312": 8493,
      "313": 8494,
      "314": 8495,
      "315": 8496,
      "316": 8497,
      "317": 8498,
      "318": 8499,
      "319": 8500,
      "320": 8501,
      "321": 8502,
      "322": 8503,
      "323": 8504,
      "324": 8505,
      "325": 8506,
      "326": 8507,
      "327": 8508,
      "328": 8509,
      "329": 8510,
      "32g": 8511,
      "330": 8512,
      "331": 8513,
      "332": 8514,
      "333": 8515,
      "334": 8516,
      "335": 8517,
      "336": 8518,
      "337": 8519,
      "338": 8520,
      "339": 8521,
      "340": 8522,
      "341": 8523,
      "342": 8524,
      "343": 8525,
      "344": 8526,
      "345": 8527,
      "346": 8528,
      "347": 8529,
      "348": 8530,
      "349": 8531,
      "350": 8532,
      "351": 8533,
      "352": 8534,
      "353": 8535,
      "354": 8536,
      "355": 8537,
      "356": 8538,
      "357": 8539,
      "358": 8540,
      "359": 8541,
      "360": 8542,
      "361": 8543,
      "362": 8544,
      "363": 8545,
      "364": 8546,
      "365": 8547,
      "366": 8548,
      "367": 8549,
      "368": 8550,
      "369": 8551,
      "370": 8552,
      "371": 8553,
      "372": 8554,
      "373": 8555,
      "374": 8556,
      "375": 8557,
      "376": 8558,
      "377": 8559,
      "378": 8560,
      "379": 8561,
      "380": 8562,
      "381": 8563,
      "382": 8564,
      "383": 8565,
      "384": 8566,
      "385": 8567,
      "386": 8568,
      "387": 8569,
      "388": 8570,
      "389": 8571,
      "390": 8572,
      "391": 8573,
      "392": 8574,
      "393": 8575,
      "394": 8576,
      "395": 8577,
      "396": 8578,
      "397": 8579,
      "398": 8580,
      "399": 8581,
      "3ds": 8582,
      "3kg": 8583,
      "3mm": 8584,
      "400": 8585,
      "401": 8586,
      "402": 8587,
      "403": 8588,
      "404": 8589,
      "405": 8590,
      "406": 8591,
      "407": 8592,
      "408": 8593,
      "409": 8594,
      "410": 8595,
      "411": 8596,
      "412": 8597,
      "413": 8598,
      "414": 8599,
      "415": 8600,
      "416": 8601,
      "417": 8602,
      "418": 8603,
      "419": 8604,
      "420": 8605,
      "421": 8606,
      "422": 8607,
      "425": 8608,
      "426": 8609,
      "427": 8610,
      "428": 8611,
      "429": 8612,
      "430": 8613,
      "432": 8614,
      "433": 8615,
      "435": 8616,
      "438": 8617,
      "440": 8618,
      "441": 8619,
      "442": 8620,
      "444": 8621,
      "445": 8622,
      "448": 8623,
      "450": 8624,
      "451": 8625,
      "453": 8626,
      "455": 8627,
      "456": 8628,
      "457": 8629,
      "458": 8630,
      "460": 8631,
      "465": 8632,
      "468": 8633,
      "470": 8634,
      "475": 8635,
      "480": 8636,
      "485": 8637,
      "486": 8638,
      "488": 8639,
      "490": 8640,
      "495": 8641,
      "498": 8642,
      "499": 8643,
      "4gb": 8644,
      "500": 8645,
      "501": 8646,
      "502": 8647,
      "503": 8648,
      "504": 8649,
      "505": 8650,
      "506": 8651,
      "508": 8652,
      "50g": 8653,
      "510": 8654,
      "511": 8655,
      "512": 8656,
      "513": 8657,
      "515": 8658,
      "516": 8659,
      "518": 8660,
      "520": 8661,
      "521": 8662,
      "522": 8663,
      "525": 8664,
      "530": 8665,
      "536": 8666,
      "539": 8667,
      "540": 8668,
      "543": 8669,
      "550": 8670,
      "555": 8671,
      "560": 8672,
      "570": 8673,
      "580": 8674,
      "588": 8675,
      "590": 8676,
      "591": 8677,
      "595": 8678,
      "599": 8679,
      "5cm": 8680,
      "5kg": 8681,
      "5mm": 8682,
      "600": 8683,
      "601": 8684,
      "603": 8685,
      "610": 8686,
      "611": 8687,
      "616": 8688,
      "618": 8689,
      "620": 8690,
      "625": 8691,
      "626": 8692,
      "630": 8693,
      "640": 8694,
      "650": 8695,
      "660": 8696,
      "661": 8697,
      "666": 8698,
      "670": 8699,
      "680": 8700,
      "688": 8701,
      "690": 8702,
      "699": 8703,
      "6gb": 8704,
      "700": 8705,
      "701": 8706,
      "705": 8707,
      "709": 8708,
      "710": 8709,
      "711": 8710,
      "720": 8711,
      "730": 8712,
      "737": 8713,
      "740": 8714,
      "747": 8715,
      "750": 8716,
      "760": 8717,
      "768": 8718,
      "770": 8719,
      "777": 8720,
      "780": 8721,
      "787": 8722,
      "790": 8723,
      "798": 8724,
      "799": 8725,
      "800": 8726,
      "801": 8727,
      "802": 8728,
      "810": 8729,
      "814": 8730,
      "816": 8731,
      "818": 8732,
      "820": 8733,
      "828": 8734,
      "830": 8735,
      "835": 8736,
      "838": 8737,
      "840": 8738,
      "850": 8739,
      "852": 8740,
      "855": 8741,
      "860": 8742,
      "863": 8743,
      "866": 8744,
      "867": 8745,
      "870": 8746,
      "880": 8747,
      "886": 8748,
      "888": 8749,
      "890": 8750,
      "897": 8751,
      "899": 8752,
      "8cm": 8753,
      "8gb": 8754,
      "8mm": 8755,
      "900": 8756,
      "911": 8757,
      "920": 8758,
      "921": 8759,
      "925": 8760,
      "930": 8761,
      "950": 8762,
      "960": 8763,
      "970": 8764,
      "978": 8765,
      "980": 8766,
      "985": 8767,
      "990": 8768,
      "998": 8769,
      "999": 8770,
      "aaa": 8771,
      "abc": 8772,
      "abs": 8773,
      "ace": 8774,
      "acg": 8775,
      "act": 8776,
      "adc": 8777,
      "add": 8778,
      "adi": 8779,
      "ads": 8780,
      "age": 8781,
      "ago": 8782,
      "air": 8783,
      "all": 8784,
      "alt": 8785,
      "amd": 8786,
      "amg": 8787,
      "amp": 8788,
      "amy": 8789,
      "and": 8790,
      "ann": 8791,
      "api": 8792,
      "apk": 8793,
      "app": 8794,
      "apr": 8795,
      "apt": 8796,
      "are": 8797,
      "arm": 8798,
      "art": 8799,
      "asp": 8800,
      "asr": 8801,
      "atm": 8802,
      "atp": 8803,
      "aug": 8804,
      "avi": 8805,
      "aws": 8806,
      "b12": 8807,
      "b2b": 8808,
      "b2c": 8809,
      "bad": 8810,
      "bag": 8811,
      "bar": 8812,
      "bas": 8813,
      "bat": 8814,
      "bay": 8815,
      "bbc": 8816,
      "bbe": 8817,
      "bbq": 8818,
      "bbs": 8819,
      "ben": 8820,
      "big": 8821,
      "bim": 8822,
      "bin": 8823,
      "bit": 8824,
      "bmw": 8825,
      "bob": 8826,
      "bot": 8827,
      "box": 8828,
      "boy": 8829,
      "bug": 8830,
      "bus": 8831,
      "but": 8832,
      "buy": 8833,
      "bye": 8834,
      "cad": 8835,
      "cam": 8836,
      "can": 8837,
      "car": 8838,
      "cat": 8839,
      "cba": 8840,
      "cbc": 8841,
      "cbd": 8842,
      "cbs": 8843,
      "ccd": 8844,
      "cdn": 8845,
      "ceo": 8846,
      "ces": 8847,
      "cfa": 8848,
      "chi": 8849,
      "cho": 8850,
      "cia": 8851,
      "cio": 8852,
      "cma": 8853,
      "cms": 8854,
      "cnc": 8855,
      "cnn": 8856,
      "co2": 8857,
      "coc": 8858,
      "com": 8859,
      "con": 8860,
      "cos": 8861,
      "cpa": 8862,
      "cpi": 8863,
      "cpu": 8864,
      "crm": 8865,
      "cry": 8866,
      "css": 8867,
      "cst": 8868,
      "cto": 8869,
      "cup": 8870,
      "cut": 8871,
      "dac": 8872,
      "dan": 8873,
      "day": 8874,
      "dcs": 8875,
      "ddd": 8876,
      "dec": 8877,
      "del": 8878,
      "der": 8879,
      "des": 8880,
      "dha": 8881,
      "dhl": 8882,
      "die": 8883,
      "dit": 8884,
      "div": 8885,
      "diy": 8886,
      "dji": 8887,
      "dlc": 8888,
      "dll": 8889,
      "dna": 8890,
      "dnf": 8891,
      "dns": 8892,
      "doc": 8893,
      "dog": 8894,
      "doi": 8895,
      "dom": 8896,
      "don": 8897,
      "dos": 8898,
      "dsp": 8899,
      "dvd": 8900,
      "eba": 8901,
      "ebd": 8902,
      "eco": 8903,
      "ecu": 8904,
      "edm": 8905,
      "eds": 8906,
      "edu": 8907,
      "eia": 8908,
      "emc": 8909,
      "emi": 8910,
      "ems": 8911,
      "end": 8912,
      "eos": 8913,
      "eps": 8914,
      "erp": 8915,
      "esc": 8916,
      "esp": 8917,
      "etc": 8918,
      "etf": 8919,
      "eur": 8920,
      "eva": 8921,
      "exe": 8922,
      "exo": 8923,
      "eye": 8924,
      "f16": 8925,
      "fan": 8926,
      "faq": 8927,
      "fbi": 8928,
      "fda": 8929,
      "feb": 8930,
      "fed": 8931,
      "fgo": 8932,
      "fit": 8933,
      "fly": 8934,
      "for": 8935,
      "fox": 8936,
      "fps": 8937,
      "fri": 8938,
      "frm": 8939,
      "ftp": 8940,
      "fun": 8941,
      "g20": 8942,
      "gap": 8943,
      "gay": 8944,
      "gdp": 8945,
      "get": 8946,
      "gif": 8947,
      "gis": 8948,
      "git": 8949,
      "gmp": 8950,
      "gmt": 8951,
      "gnu": 8952,
      "god": 8953,
      "goo": 8954,
      "gov": 8955,
      "gpa": 8956,
      "gps": 8957,
      "gpu": 8958,
      "gre": 8959,
      "gsm": 8960,
      "gtx": 8961,
      "gui": 8962,
      "han": 8963,
      "has": 8964,
      "hdr": 8965,
      "her": 8966,
      "hey": 8967,
      "hip": 8968,
      "his": 8969,
      "hit": 8970,
      "hiv": 8971,
      "hop": 8972,
      "hot": 8973,
      "how": 8974,
      "hpv": 8975,
      "hsu": 8976,
      "htc": 8977,
      "htm": 8978,
      "ian": 8979,
      "ibm": 8980,
      "ice": 8981,
      "icp": 8982,
      "ict": 8983,
      "idc": 8984,
      "ide": 8985,
      "ie6": 8986,
      "iii": 8987,
      "iis": 8988,
      "imf": 8989,
      "img": 8990,
      "inc": 8991,
      "ing": 8992,
      "inn": 8993,
      "ins": 8994,
      "int": 8995,
      "ios": 8996,
      "iot": 8997,
      "ipo": 8998,
      "ips": 8999,
      "iso": 9000,
      "isp": 9001,
      "its": 9002,
      "ivy": 9003,
      "jan": 9004,
      "jay": 9005,
      "jcb": 9006,
      "jim": 9007,
      "job": 9008,
      "joe": 9009,
      "joy": 9010,
      "jpg": 9011,
      "jul": 9012,
      "jun": 9013,
      "kai": 9014,
      "kbs": 9015,
      "kde": 9016,
      "ken": 9017,
      "key": 9018,
      "kic": 9019,
      "kim": 9020,
      "kit": 9021,
      "kpi": 9022,
      "ktv": 9023,
      "lab": 9024,
      "lan": 9025,
      "law": 9026,
      "lcd": 9027,
      "led": 9028,
      "lee": 9029,
      "leo": 9030,
      "les": 9031,
      "let": 9032,
      "lim": 9033,
      "lin": 9034,
      "liu": 9035,
      "llc": 9036,
      "log": 9037,
      "lol": 9038,
      "low": 9039,
      "ltd": 9040,
      "lte": 9041,
      "mac": 9042,
      "man": 9043,
      "map": 9044,
      "mar": 9045,
      "max": 9046,
      "may": 9047,
      "mba": 9048,
      "mbc": 9049,
      "mcu": 9050,
      "men": 9051,
      "mhz": 9052,
      "min": 9053,
      "mit": 9054,
      "mix": 9055,
      "mkv": 9056,
      "mlb": 9057,
      "mod": 9058,
      "mon": 9059,
      "mp3": 9060,
      "mp4": 9061,
      "mpv": 9062,
      "msg": 9063,
      "msi": 9064,
      "msn": 9065,
      "mtv": 9066,
      "mvp": 9067,
      "mwc": 9068,
      "nas": 9069,
      "nba": 9070,
      "nbc": 9071,
      "ncc": 9072,
      "neo": 9073,
      "net": 9074,
      "new": 9075,
      "nfc": 9076,
      "ngo": 9077,
      "nhk": 9078,
      "no1": 9079,
      "non": 9080,
      "not": 9081,
      "nov": 9082,
      "now": 9083,
      "npc": 9084,
      "o2o": 9085,
      "oct": 9086,
      "oem": 9087,
      "off": 9088,
      "ofo": 9089,
      "oil": 9090,
      "old": 9091,
      "one": 9092,
      "org": 9093,
      "orz": 9094,
      "ott": 9095,
      "our": 9096,
      "out": 9097,
      "p10": 9098,
      "p2p": 9099,
      "pad": 9100,
      "pan": 9101,
      "pay": 9102,
      "pcb": 9103,
      "pci": 9104,
      "pdf": 9105,
      "pen": 9106,
      "pet": 9107,
      "php": 9108,
      "pin": 9109,
      "plc": 9110,
      "pm1": 9111,
      "pm2": 9112,
      "pmi": 9113,
      "png": 9114,
      "pop": 9115,
      "pos": 9116,
      "ppi": 9117,
      "ppp": 9118,
      "ppt": 9119,
      "pre": 9120,
      "pro": 9121,
      "ps3": 9122,
      "ps4": 9123,
      "psp": 9124,
      "ptt": 9125,
      "pvc": 9126,
      "pvp": 9127,
      "pwm": 9128,
      "q10": 9129,
      "ram": 9130,
      "rar": 9131,
      "raw": 9132,
      "ray": 9133,
      "red": 9134,
      "rgb": 9135,
      "rmb": 9136,
      "rna": 9137,
      "rom": 9138,
      "rpg": 9139,
      "rss": 9140,
      "run": 9141,
      "sam": 9142,
      "san": 9143,
      "sao": 9144,
      "sap": 9145,
      "sas": 9146,
      "sat": 9147,
      "say": 9148,
      "sbl": 9149,
      "sbs": 9150,
      "sci": 9151,
      "scp": 9152,
      "sdk": 9153,
      "sea": 9154,
      "see": 9155,
      "seo": 9156,
      "sep": 9157,
      "set": 9158,
      "sex": 9159,
      "sgs": 9160,
      "she": 9161,
      "shi": 9162,
      "sim": 9163,
      "sir": 9164,
      "sky": 9165,
      "sms": 9166,
      "sns": 9167,
      "soc": 9168,
      "spa": 9169,
      "spf": 9170,
      "sql": 9171,
      "ssd": 9172,
      "ssh": 9173,
      "ssl": 9174,
      "sso": 9175,
      "sui": 9176,
      "sun": 9177,
      "suv": 9178,
      "tab": 9179,
      "tag": 9180,
      "tai": 9181,
      "tan": 9182,
      "tbs": 9183,
      "tcl": 9184,
      "tcp": 9185,
      "tcs": 9186,
      "tea": 9187,
      "ted": 9188,
      "tee": 9189,
      "tel": 9190,
      "tft": 9191,
      "the": 9192,
      "thu": 9193,
      "tim": 9194,
      "tmt": 9195,
      "tom": 9196,
      "too": 9197,
      "top": 9198,
      "tpp": 9199,
      "trc": 9200,
      "tvb": 9201,
      "two": 9202,
      "txt": 9203,
      "ufo": 9204,
      "unt": 9205,
      "ups": 9206,
      "url": 9207,
      "usa": 9208,
      "usb": 9209,
      "usd": 9210,
      "use": 9211,
      "utc": 9212,
      "van": 9213,
      "var": 9214,
      "vcd": 9215,
      "ver": 9216,
      "vga": 9217,
      "via": 9218,
      "vim": 9219,
      "vip": 9220,
      "vol": 9221,
      "von": 9222,
      "vpn": 9223,
      "vps": 9224,
      "vsa": 9225,
      "vsc": 9226,
      "wan": 9227,
      "wap": 9228,
      "war": 9229,
      "was": 9230,
      "way": 9231,
      "web": 9232,
      "wed": 9233,
      "wei": 9234,
      "who": 9235,
      "why": 9236,
      "wii": 9237,
      "win": 9238,
      "wma": 9239,
      "wow": 9240,
      "wps": 9241,
      "wto": 9242,
      "www": 9243,
      "x86": 9244,
      "xml": 9245,
      "xxx": 9246,
      "xyz": 9247,
      "yam": 9248,
      "yes": 9249,
      "yin": 9250,
      "you": 9251,
      "zen": 9252,
      "zip": 9253,
      "zol": 9254,
      "0020": 9255,
      "0755": 9256,
      "0800": 9257,
      "1000": 9258,
      "1001": 9259,
      "100g": 9260,
      "100m": 9261,
      "1010": 9262,
      "1020": 9263,
      "1024": 9264,
      "1080": 9265,
      "1100": 9266,
      "1111": 9267,
      "1200": 9268,
      "1234": 9269,
      "1250": 9270,
      "1280": 9271,
      "1300": 9272,
      "1350": 9273,
      "1389": 9274,
      "1400": 9275,
      "1500": 9276,
      "1600": 9277,
      "16gb": 9278,
      "1700": 9279,
      "1800": 9280,
      "1840": 9281,
      "1850": 9282,
      "1860": 9283,
      "1867": 9284,
      "1868": 9285,
      "1870": 9286,
      "1871": 9287,
      "1880": 9288,
      "1882": 9289,
      "1884": 9290,
      "1885": 9291,
      "1886": 9292,
      "1888": 9293,
      "1889": 9294,
      "1890": 9295,
      "1893": 9296,
      "1894": 9297,
      "1895": 9298,
      "1896": 9299,
      "1897": 9300,
      "1898": 9301,
      "1899": 9302,
      "1900": 9303,
      "1901": 9304,
      "1902": 9305,
      "1903": 9306,
      "1904": 9307,
      "1905": 9308,
      "1906": 9309,
      "1907": 9310,
      "1908": 9311,
      "1909": 9312,
      "1910": 9313,
      "1911": 9314,
      "1912": 9315,
      "1913": 9316,
      "1914": 9317,
      "1915": 9318,
      "1916": 9319,
      "1917": 9320,
      "1918": 9321,
      "1919": 9322,
      "1920": 9323,
      "1921": 9324,
      "1922": 9325,
      "1923": 9326,
      "1924": 9327,
      "1925": 9328,
      "1926": 9329,
      "1927": 9330,
      "1928": 9331,
      "1929": 9332,
      "1930": 9333,
      "1931": 9334,
      "1932": 9335,
      "1933": 9336,
      "1934": 9337,
      "1935": 9338,
      "1936": 9339,
      "1937": 9340,
      "1938": 9341,
      "1939": 9342,
      "1940": 9343,
      "1941": 9344,
      "1942": 9345,
      "1943": 9346,
      "1944": 9347,
      "1945": 9348,
      "1946": 9349,
      "1947": 9350,
      "1948": 9351,
      "1949": 9352,
      "1950": 9353,
      "1951": 9354,
      "1952": 9355,
      "1953": 9356,
      "1954": 9357,
      "1955": 9358,
      "1956": 9359,
      "1957": 9360,
      "1958": 9361,
      "1959": 9362,
      "1960": 9363,
      "1961": 9364,
      "1962": 9365,
      "1963": 9366,
      "1964": 9367,
      "1965": 9368,
      "1966": 9369,
      "1967": 9370,
      "1968": 9371,
      "1969": 9372,
      "1970": 9373,
      "1971": 9374,
      "1972": 9375,
      "1973": 9376,
      "1974": 9377,
      "1975": 9378,
      "1976": 9379,
      "1977": 9380,
      "1978": 9381,
      "1979": 9382,
      "1980": 9383,
      "1981": 9384,
      "1982": 9385,
      "1983": 9386,
      "1984": 9387,
      "1985": 9388,
      "1986": 9389,
      "1987": 9390,
      "1988": 9391,
      "1989": 9392,
      "1990": 9393,
      "1991": 9394,
      "1992": 9395,
      "1993": 9396,
      "1994": 9397,
      "1995": 9398,
      "1996": 9399,
      "1997": 9400,
      "1998": 9401,
      "1999": 9402,
      "2000": 9403,
      "2001": 9404,
      "2002": 9405,
      "2003": 9406,
      "2004": 9407,
      "2005": 9408,
      "2006": 9409,
      "2007": 9410,
      "2008": 9411,
      "2009": 9412,
      "2010": 9413,
      "2011": 9414,
      "2012": 9415,
      "2013": 9416,
      "2014": 9417,
      "2015": 9418,
      "2016": 9419,
      "2017": 9420,
      "2018": 9421,
      "2019": 9422,
      "2020": 9423,
      "2021": 9424,
      "2022": 9425,
      "2025": 9426,
      "2030": 9427,
      "2050": 9428,
      "20cm": 9429,
      "20mm": 9430,
      "2100": 9431,
      "2200": 9432,
      "2300": 9433,
      "2345": 9434,
      "2400": 9435,
      "2500": 9436,
      "2600": 9437,
      "2700": 9438,
      "2800": 9439,
      "2900": 9440,
      "3000": 9441,
      "30cm": 9442,
      "30ml": 9443,
      "3100": 9444,
      "3200": 9445,
      "32gb": 9446,
      "3300": 9447,
      "3400": 9448,
      "3500": 9449,
      "3600": 9450,
      "3800": 9451,
      "4000": 9452,
      "4200": 9453,
      "4399": 9454,
      "4500": 9455,
      "4600": 9456,
      "4800": 9457,
      "5000": 9458,
      "500g": 9459,
      "50cm": 9460,
      "50ml": 9461,
      "50mm": 9462,
      "5500": 9463,
      "6000": 9464,
      "64gb": 9465,
      "6500": 9466,
      "7000": 9467,
      "720p": 9468,
      "7500": 9469,
      "7x24": 9470,
      "8000": 9471,
      "9000": 9472,
      "acca": 9473,
      "acer": 9474,
      "adam": 9475,
      "adsl": 9476,
      "ajax": 9477,
      "alan": 9478,
      "alex": 9479,
      "also": 9480,
      "andy": 9481,
      "anna": 9482,
      "anne": 9483,
      "anti": 9484,
      "apec": 9485,
      "apps": 9486,
      "area": 9487,
      "arpg": 9488,
      "arts": 9489,
      "asia": 9490,
      "asus": 9491,
      "atom": 9492,
      "audi": 9493,
      "auto": 9494,
      "baby": 9495,
      "back": 9496,
      "ball": 9497,
      "band": 9498,
      "bang": 9499,
      "bank": 9500,
      "base": 9501,
      "bean": 9502,
      "bear": 9503,
      "bell": 9504,
      "benz": 9505,
      "best": 9506,
      "beta": 9507,
      "bill": 9508,
      "bing": 9509,
      "bios": 9510,
      "bird": 9511,
      "blog": 9512,
      "blue": 9513,
      "body": 9514,
      "book": 9515,
      "boot": 9516,
      "boss": 9517,
      "buff": 9518,
      "c919": 9519,
      "cafe": 9520,
      "cake": 9521,
      "call": 9522,
      "camp": 9523,
      "card": 9524,
      "care": 9525,
      "case": 9526,
      "cctv": 9527,
      "cdma": 9528,
      "cell": 9529,
      "chan": 9530,
      "chen": 9531,
      "city": 9532,
      "club": 9533,
      "cmos": 9534,
      "coco": 9535,
      "code": 9536,
      "come": 9537,
      "cook": 9538,
      "cool": 9539,
      "copy": 9540,
      "core": 9541,
      "css3": 9542,
      "ctrl": 9543,
      "dark": 9544,
      "data": 9545,
      "date": 9546,
      "day1": 9547,
      "day2": 9548,
      "days": 9549,
      "ddos": 9550,
      "dean": 9551,
      "dear": 9552,
      "deep": 9553,
      "dell": 9554,
      "demo": 9555,
      "dior": 9556,
      "dota": 9557,
      "down": 9558,
      "dram": 9559,
      "east": 9560,
      "easy": 9561,
      "ebay": 9562,
      "echo": 9563,
      "edge": 9564,
      "edit": 9565,
      "ella": 9566,
      "elle": 9567,
      "else": 9568,
      "emba": 9569,
      "emma": 9570,
      "eric": 9571,
      "eyes": 9572,
      "face": 9573,
      "fans": 9574,
      "fast": 9575,
      "feed": 9576,
      "feel": 9577,
      "fifa": 9578,
      "file": 9579,
      "film": 9580,
      "find": 9581,
      "fire": 9582,
      "fish": 9583,
      "five": 9584,
      "font": 9585,
      "food": 9586,
      "ford": 9587,
      "form": 9588,
      "fpga": 9589,
      "free": 9590,
      "from": 9591,
      "full": 9592,
      "fung": 9593,
      "gaga": 9594,
      "game": 9595,
      "gary": 9596,
      "gear": 9597,
      "gigi": 9598,
      "girl": 9599,
      "gmat": 9600,
      "gold": 9601,
      "good": 9602,
      "h7n9": 9603,
      "hair": 9604,
      "hall": 9605,
      "hard": 9606,
      "have": 9607,
      "hdmi": 9608,
      "head": 9609,
      "help": 9610,
      "here": 9611,
      "hero": 9612,
      "high": 9613,
      "hill": 9614,
      "hold": 9615,
      "home": 9616,
      "hong": 9617,
      "host": 9618,
      "html": 9619,
      "http": 9620,
      "icon": 9621,
      "idea": 9622,
      "ieee": 9623,
      "ikea": 9624,
      "imax": 9625,
      "info": 9626,
      "into": 9627,
      "ios7": 9628,
      "ios9": 9629,
      "ipad": 9630,
      "ipod": 9631,
      "iptv": 9632,
      "ipv6": 9633,
      "isbn": 9634,
      "isis": 9635,
      "item": 9636,
      "jack": 9637,
      "jane": 9638,
      "java": 9639,
      "jean": 9640,
      "jeff": 9641,
      "jing": 9642,
      "jobs": 9643,
      "john": 9644,
      "jose": 9645,
      "jpeg": 9646,
      "json": 9647,
      "july": 9648,
      "jump": 9649,
      "june": 9650,
      "just": 9651,
      "karl": 9652,
      "kate": 9653,
      "keep": 9654,
      "kids": 9655,
      "kimi": 9656,
      "king": 9657,
      "kiss": 9658,
      "know": 9659,
      "kong": 9660,
      "kuso": 9661,
      "lady": 9662,
      "lake": 9663,
      "land": 9664,
      "last": 9665,
      "left": 9666,
      "life": 9667,
      "like": 9668,
      "lily": 9669,
      "line": 9670,
      "ling": 9671,
      "link": 9672,
      "lisa": 9673,
      "list": 9674,
      "live": 9675,
      "lock": 9676,
      "loft": 9677,
      "logo": 9678,
      "long": 9679,
      "look": 9680,
      "lost": 9681,
      "love": 9682,
      "lulu": 9683,
      "macd": 9684,
      "made": 9685,
      "mail": 9686,
      "main": 9687,
      "make": 9688,
      "mall": 9689,
      "mama": 9690,
      "maps": 9691,
      "marc": 9692,
      "mark": 9693,
      "mary": 9694,
      "mate": 9695,
      "matt": 9696,
      "mega": 9697,
      "mems": 9698,
      "menu": 9699,
      "meta": 9700,
      "mike": 9701,
      "mind": 9702,
      "ming": 9703,
      "mini": 9704,
      "miss": 9705,
      "miui": 9706,
      "moba": 9707,
      "mode": 9708,
      "momo": 9709,
      "moon": 9710,
      "more": 9711,
      "most": 9712,
      "moto": 9713,
      "msci": 9714,
      "muji": 9715,
      "name": 9716,
      "nana": 9717,
      "nand": 9718,
      "nano": 9719,
      "nasa": 9720,
      "nata": 9721,
      "nbsp": 9722,
      "news": 9723,
      "next": 9724,
      "nice": 9725,
      "nick": 9726,
      "nike": 9727,
      "node": 9728,
      "note": 9729,
      "nova": 9730,
      "null": 9731,
      "oled": 9732,
      "only": 9733,
      "opec": 9734,
      "open": 9735,
      "oppo": 9736,
      "over": 9737,
      "pack": 9738,
      "page": 9739,
      "park": 9740,
      "part": 9741,
      "pass": 9742,
      "path": 9743,
      "paul": 9744,
      "ping": 9745,
      "pink": 9746,
      "plan": 9747,
      "play": 9748,
      "plus": 9749,
      "polo": 9750,
      "pony": 9751,
      "port": 9752,
      "pose": 9753,
      "post": 9754,
      "pptv": 9755,
      "puma": 9756,
      "pure": 9757,
      "push": 9758,
      "quot": 9759,
      "qvod": 9760,
      "raid": 9761,
      "rain": 9762,
      "rate": 9763,
      "read": 9764,
      "real": 9765,
      "rfid": 9766,
      "rich": 9767,
      "rick": 9768,
      "rmvb": 9769,
      "road": 9770,
      "rock": 9771,
      "room": 9772,
      "root": 9773,
      "rose": 9774,
      "ruby": 9775,
      "ryan": 9776,
      "saas": 9777,
      "said": 9778,
      "sale": 9779,
      "sars": 9780,
      "sata": 9781,
      "save": 9782,
      "sean": 9783,
      "self": 9784,
      "shop": 9785,
      "show": 9786,
      "side": 9787,
      "sign": 9788,
      "sina": 9789,
      "siri": 9790,
      "site": 9791,
      "size": 9792,
      "skin": 9793,
      "skip": 9794,
      "smap": 9795,
      "soft": 9796,
      "sogo": 9797,
      "soho": 9798,
      "sohu": 9799,
      "solo": 9800,
      "some": 9801,
      "song": 9802,
      "sony": 9803,
      "soul": 9804,
      "span": 9805,
      "star": 9806,
      "stay": 9807,
      "step": 9808,
      "stop": 9809,
      "sync": 9810,
      "take": 9811,
      "talk": 9812,
      "team": 9813,
      "tech": 9814,
      "test": 9815,
      "text": 9816,
      "thai": 9817,
      "than": 9818,
      "that": 9819,
      "they": 9820,
      "this": 9821,
      "time": 9822,
      "tina": 9823,
      "tips": 9824,
      "tony": 9825,
      "tour": 9826,
      "town": 9827,
      "tree": 9828,
      "trip": 9829,
      "true": 9830,
      "tvbs": 9831,
      "type": 9832,
      "uber": 9833,
      "unit": 9834,
      "unix": 9835,
      "usb3": 9836,
      "user": 9837,
      "vans": 9838,
      "vera": 9839,
      "very": 9840,
      "view": 9841,
      "visa": 9842,
      "vive": 9843,
      "vivi": 9844,
      "vivo": 9845,
      "wall": 9846,
      "wang": 9847,
      "want": 9848,
      "wave": 9849,
      "wear": 9850,
      "week": 9851,
      "well": 9852,
      "west": 9853,
      "what": 9854,
      "when": 9855,
      "wifi": 9856,
      "wiki": 9857,
      "will": 9858,
      "win7": 9859,
      "win8": 9860,
      "wind": 9861,
      "wine": 9862,
      "wing": 9863,
      "wish": 9864,
      "with": 9865,
      "wong": 9866,
      "word": 9867,
      "work": 9868,
      "wwdc": 9869,
      "xbox": 9870,
      "xxxx": 9871,
      "yang": 9872,
      "year": 9873,
      "yoga": 9874,
      "york": 9875,
      "your": 9876,
      "yumi": 9877,
      "zara": 9878,
      "zero": 9879,
      "zone": 9880,
      "zoom": 9881,
      "10000": 9882,
      "100km": 9883,
      "100ml": 9884,
      "1080p": 9885,
      "12000": 9886,
      "12306": 9887,
      "12345": 9888,
      "128gb": 9889,
      "15000": 9890,
      "18000": 9891,
      "20000": 9892,
      "200mm": 9893,
      "25000": 9894,
      "30000": 9895,
      "50000": 9896,
      "500ml": 9897,
      "about": 9898,
      "admin": 9899,
      "adobe": 9900,
      "after": 9901,
      "again": 9902,
      "agent": 9903,
      "akb48": 9904,
      "album": 9905,
      "alexa": 9906,
      "alice": 9907,
      "allen": 9908,
      "alpha": 9909,
      "angel": 9910,
      "annie": 9911,
      "apple": 9912,
      "april": 9913,
      "asics": 9914,
      "audio": 9915,
      "award": 9916,
      "azure": 9917,
      "baidu": 9918,
      "basic": 9919,
      "beach": 9920,
      "bella": 9921,
      "belle": 9922,
      "black": 9923,
      "block": 9924,
      "board": 9925,
      "boost": 9926,
      "brand": 9927,
      "break": 9928,
      "brian": 9929,
      "brown": 9930,
      "bruce": 9931,
      "build": 9932,
      "cache": 9933,
      "candy": 9934,
      "canon": 9935,
      "carlo": 9936,
      "carol": 9937,
      "chang": 9938,
      "check": 9939,
      "china": 9940,
      "chris": 9941,
      "cindy": 9942,
      "cisco": 9943,
      "class": 9944,
      "click": 9945,
      "close": 9946,
      "cloud": 9947,
      "coach": 9948,
      "color": 9949,
      "cool1": 9950,
      "count": 9951,
      "coupe": 9952,
      "cover": 9953,
      "cream": 9954,
      "cross": 9955,
      "daily": 9956,
      "dance": 9957,
      "david": 9958,
      "davis": 9959,
      "dream": 9960,
      "drive": 9961,
      "earth": 9962,
      "email": 9963,
      "emily": 9964,
      "enter": 9965,
      "epson": 9966,
      "error": 9967,
      "event": 9968,
      "excel": 9969,
      "false": 9970,
      "field": 9971,
      "files": 9972,
      "final": 9973,
      "first": 9974,
      "flash": 9975,
      "focus": 9976,
      "force": 9977,
      "frank": 9978,
      "fresh": 9979,
      "games": 9980,
      "ghost": 9981,
      "girls": 9982,
      "glass": 9983,
      "gmail": 9984,
      "gopro": 9985,
      "grace": 9986,
      "grand": 9987,
      "great": 9988,
      "green": 9989,
      "group": 9990,
      "gucci": 9991,
      "guest": 9992,
      "guide": 9993,
      "happy": 9994,
      "harry": 9995,
      "heart": 9996,
      "hello": 9997,
      "henry": 9998,
      "herme": 9999,
      "honda": 10000,
      "honey": 10001,
      "hotel": 10002,
      "house": 10003,
      "html5": 10004,
      "https": 10005,
      "huang": 10006,
      "human": 10007,
      "image": 10008,
      "index": 10009,
      "intel": 10010,
      "ios10": 10011,
      "james": 10012,
      "japan": 10013,
      "jason": 10014,
      "jerry": 10015,
      "jimmy": 10016,
      "jones": 10017,
      "kelly": 10018,
      "kevin": 10019,
      "kitty": 10020,
      "korea": 10021,
      "leave": 10022,
      "level": 10023,
      "light": 10024,
      "links": 10025,
      "linux": 10026,
      "local": 10027,
      "louis": 10028,
      "lucky": 10029,
      "lumia": 10030,
      "magic": 10031,
      "maker": 10032,
      "mandy": 10033,
      "mango": 10034,
      "march": 10035,
      "maria": 10036,
      "match": 10037,
      "media": 10038,
      "metal": 10039,
      "metro": 10040,
      "micro": 10041,
      "mobil": 10042,
      "model": 10043,
      "money": 10044,
      "monte": 10045,
      "mount": 10046,
      "movie": 10047,
      "multi": 10048,
      "music": 10049,
      "mysql": 10050,
      "never": 10051,
      "nexus": 10052,
      "nginx": 10053,
      "night": 10054,
      "nikon": 10055,
      "nokia": 10056,
      "north": 10057,
      "note7": 10058,
      "notes": 10059,
      "ocean": 10060,
      "offer": 10061,
      "omega": 10062,
      "opera": 10063,
      "order": 10064,
      "other": 10065,
      "paper": 10066,
      "paris": 10067,
      "party": 10068,
      "peter": 10069,
      "phone": 10070,
      "photo": 10071,
      "pixel": 10072,
      "pizza": 10073,
      "place": 10074,
      "plaza": 10075,
      "point": 10076,
      "posts": 10077,
      "power": 10078,
      "prada": 10079,
      "press": 10080,
      "price": 10081,
      "prime": 10082,
      "queen": 10083,
      "quick": 10084,
      "radio": 10085,
      "redis": 10086,
      "right": 10087,
      "river": 10088,
      "roger": 10089,
      "rosie": 10090,
      "royal": 10091,
      "saint": 10092,
      "santa": 10093,
      "sarah": 10094,
      "scott": 10095,
      "sense": 10096,
      "seven": 10097,
      "share": 10098,
      "shell": 10099,
      "shift": 10100,
      "shirt": 10101,
      "simon": 10102,
      "skype": 10103,
      "small": 10104,
      "smart": 10105,
      "smith": 10106,
      "sorry": 10107,
      "sound": 10108,
      "south": 10109,
      "space": 10110,
      "spark": 10111,
      "speed": 10112,
      "sport": 10113,
      "stage": 10114,
      "start": 10115,
      "state": 10116,
      "steam": 10117,
      "step1": 10118,
      "step2": 10119,
      "step3": 10120,
      "step4": 10121,
      "step5": 10122,
      "steve": 10123,
      "stone": 10124,
      "store": 10125,
      "story": 10126,
      "study": 10127,
      "style": 10128,
      "sunny": 10129,
      "super": 10130,
      "sweet": 10131,
      "swift": 10132,
      "swiss": 10133,
      "table": 10134,
      "teddy": 10135,
      "tesla": 10136,
      "there": 10137,
      "think": 10138,
      "three": 10139,
      "tiger": 10140,
      "times": 10141,
      "title": 10142,
      "today": 10143,
      "tokyo": 10144,
      "top10": 10145,
      "touch": 10146,
      "tower": 10147,
      "trump": 10148,
      "turbo": 10149,
      "ultra": 10150,
      "under": 10151,
      "union": 10152,
      "unity": 10153,
      "urban": 10154,
      "value": 10155,
      "video": 10156,
      "villa": 10157,
      "vista": 10158,
      "vogue": 10159,
      "voice": 10160,
      "volvo": 10161,
      "watch": 10162,
      "water": 10163,
      "where": 10164,
      "white": 10165,
      "win10": 10166,
      "women": 10167,
      "works": 10168,
      "world": 10169,
      "write": 10170,
      "yahoo": 10171,
      "young": 10172,
      "123456": 10173,
      "access": 10174,
      "action": 10175,
      "active": 10176,
      "adidas": 10177,
      "airbnb": 10178,
      "amazon": 10179,
      "amoled": 10180,
      "andrew": 10181,
      "angela": 10182,
      "apache": 10183,
      "armani": 10184,
      "august": 10185,
      "author": 10186,
      "banner": 10187,
      "battle": 10188,
      "beauty": 10189,
      "before": 10190,
      "beyond": 10191,
      "bridge": 10192,
      "camera": 10193,
      "canada": 10194,
      "center": 10195,
      "centre": 10196,
      "chanel": 10197,
      "change": 10198,
      "cheese": 10199,
      "chrome": 10200,
      "church": 10201,
      "claire": 10202,
      "client": 10203,
      "coffee": 10204,
      "common": 10205,
      "cookie": 10206,
      "costco": 10207,
      "course": 10208,
      "create": 10209,
      "credit": 10210,
      "daniel": 10211,
      "delete": 10212,
      "design": 10213,
      "discuz": 10214,
      "disney": 10215,
      "docker": 10216,
      "domain": 10217,
      "donald": 10218,
      "double": 10219,
      "dragon": 10220,
      "editor": 10221,
      "edward": 10222,
      "eleven": 10223,
      "energy": 10224,
      "engine": 10225,
      "family": 10226,
      "fedora": 10227,
      "flickr": 10228,
      "follow": 10229,
      "forest": 10230,
      "france": 10231,
      "friday": 10232,
      "friend": 10233,
      "future": 10234,
      "galaxy": 10235,
      "garden": 10236,
      "george": 10237,
      "github": 10238,
      "global": 10239,
      "golden": 10240,
      "google": 10241,
      "gundam": 10242,
      "hadoop": 10243,
      "health": 10244,
      "howard": 10245,
      "huawei": 10246,
      "icloud": 10247,
      "inside": 10248,
      "iphone": 10249,
      "island": 10250,
      "isofix": 10251,
      "itunes": 10252,
      "jordan": 10253,
      "joseph": 10254,
      "jquery": 10255,
      "junior": 10256,
      "justin": 10257,
      "kindle": 10258,
      "lenovo": 10259,
      "little": 10260,
      "living": 10261,
      "london": 10262,
      "maggie": 10263,
      "market": 10264,
      "martin": 10265,
      "master": 10266,
      "matlab": 10267,
      "melody": 10268,
      "member": 10269,
      "memory": 10270,
      "miller": 10271,
      "mmorpg": 10272,
      "mobile": 10273,
      "modern": 10274,
      "museum": 10275,
      "nature": 10276,
      "number": 10277,
      "nvidia": 10278,
      "object": 10279,
      "oculus": 10280,
      "office": 10281,
      "online": 10282,
      "oracle": 10283,
      "orange": 10284,
      "oxford": 10285,
      "parker": 10286,
      "paypal": 10287,
      "people": 10288,
      "pepper": 10289,
      "photos": 10290,
      "pierre": 10291,
      "planet": 10292,
      "player": 10293,
      "please": 10294,
      "public": 10295,
      "python": 10296,
      "report": 10297,
      "result": 10298,
      "return": 10299,
      "review": 10300,
      "robert": 10301,
      "safari": 10302,
      "school": 10303,
      "script": 10304,
      "search": 10305,
      "season": 10306,
      "second": 10307,
      "secret": 10308,
      "select": 10309,
      "series": 10310,
      "server": 10311,
      "shadow": 10312,
      "silver": 10313,
      "simple": 10314,
      "single": 10315,
      "social": 10316,
      "sophie": 10317,
      "source": 10318,
      "sports": 10319,
      "spring": 10320,
      "square": 10321,
      "steven": 10322,
      "street": 10323,
      "string": 10324,
      "strong": 10325,
      "studio": 10326,
      "summer": 10327,
      "sunday": 10328,
      "swatch": 10329,
      "switch": 10330,
      "system": 10331,
      "taiwan": 10332,
      "target": 10333,
      "taylor": 10334,
      "thomas": 10335,
      "thread": 10336,
      "top100": 10337,
      "toyota": 10338,
      "travel": 10339,
      "ubuntu": 10340,
      "uniqlo": 10341,
      "united": 10342,
      "update": 10343,
      "vision": 10344,
      "visual": 10345,
      "vmware": 10346,
      "walker": 10347,
      "wilson": 10348,
      "window": 10349,
      "winrar": 10350,
      "xperia": 10351,
      "address": 10352,
      "airport": 10353,
      "alphago": 10354,
      "america": 10355,
      "android": 10356,
      "anthony": 10357,
      "arduino": 10358,
      "autocad": 10359,
      "balance": 10360,
      "bigbang": 10361,
      "blogger": 10362,
      "capital": 10363,
      "central": 10364,
      "channel": 10365,
      "chapter": 10366,
      "charles": 10367,
      "charlie": 10368,
      "chicago": 10369,
      "chinese": 10370,
      "classic": 10371,
      "college": 10372,
      "company": 10373,
      "connect": 10374,
      "contact": 10375,
      "content": 10376,
      "control": 10377,
      "cookies": 10378,
      "cosplay": 10379,
      "country": 10380,
      "crystal": 10381,
      "culture": 10382,
      "digital": 10383,
      "display": 10384,
      "dropbox": 10385,
      "eclipse": 10386,
      "english": 10387,
      "express": 10388,
      "factory": 10389,
      "fantasy": 10390,
      "fashion": 10391,
      "fintech": 10392,
      "firefox": 10393,
      "francis": 10394,
      "friends": 10395,
      "gartner": 10396,
      "general": 10397,
      "history": 10398,
      "hitachi": 10399,
      "holiday": 10400,
      "hotmail": 10401,
      "install": 10402,
      "iphone6": 10403,
      "iphone7": 10404,
      "iso9001": 10405,
      "jackson": 10406,
      "jessica": 10407,
      "johnson": 10408,
      "journal": 10409,
      "limited": 10410,
      "macbook": 10411,
      "machine": 10412,
      "manager": 10413,
      "message": 10414,
      "michael": 10415,
      "morning": 10416,
      "mozilla": 10417,
      "natural": 10418,
      "netflix": 10419,
      "network": 10420,
      "october": 10421,
      "outlook": 10422,
      "pacific": 10423,
      "patrick": 10424,
      "philips": 10425,
      "pokemon": 10426,
      "popular": 10427,
      "powered": 10428,
      "premium": 10429,
      "private": 10430,
      "process": 10431,
      "product": 10432,
      "profile": 10433,
      "program": 10434,
      "project": 10435,
      "reading": 10436,
      "rebecca": 10437,
      "release": 10438,
      "request": 10439,
      "richard": 10440,
      "running": 10441,
      "russell": 10442,
      "samsung": 10443,
      "science": 10444,
      "service": 10445,
      "session": 10446,
      "society": 10447,
      "special": 10448,
      "spotify": 10449,
      "station": 10450,
      "stephen": 10451,
      "support": 10452,
      "supreme": 10453,
      "surface": 10454,
      "systems": 10455,
      "thunder": 10456,
      "tiffany": 10457,
      "twitter": 10458,
      "unicode": 10459,
      "version": 10460,
      "village": 10461,
      "vincent": 10462,
      "virtual": 10463,
      "welcome": 10464,
      "william": 10465,
      "windows": 10466,
      "youtube": 10467,
      "zenfone": 10468,
      "advanced": 10469,
      "american": 10470,
      "burberry": 10471,
      "business": 10472,
      "campaign": 10473,
      "category": 10474,
      "children": 10475,
      "continue": 10476,
      "creative": 10477,
      "download": 10478,
      "exchange": 10479,
      "explorer": 10480,
      "facebook": 10481,
      "function": 10482,
      "givenchy": 10483,
      "internet": 10484,
      "jennifer": 10485,
      "jonathan": 10486,
      "language": 10487,
      "learning": 10488,
      "linkedin": 10489,
      "magazine": 10490,
      "mountain": 10491,
      "national": 10492,
      "netscape": 10493,
      "qualcomm": 10494,
      "research": 10495,
      "security": 10496,
      "services": 10497,
      "shopping": 10498,
      "software": 10499,
      "standard": 10500,
      "thinkpad": 10501,
      "victoria": 10502,
      "whatsapp": 10503,
      "williams": 10504,
      "windows7": 10505,
      "alexander": 10506,
      "beautiful": 10507,
      "bloomberg": 10508,
      "cambridge": 10509,
      "christian": 10510,
      "copyright": 10511,
      "discovery": 10512,
      "education": 10513,
      "evolution": 10514,
      "financial": 10515,
      "instagram": 10516,
      "institute": 10517,
      "lifestyle": 10518,
      "marketing": 10519,
      "messenger": 10520,
      "microsoft": 10521,
      "panasonic": 10522,
      "photoshop": 10523,
      "pinterest": 10524,
      "salvatore": 10525,
      "singapore": 10526,
      "something": 10527,
      "structure": 10528,
      "universal": 10529,
      "wordpress": 10530,
      "angelababy": 10531,
      "california": 10532,
      "collection": 10533,
      "electronic": 10534,
      "foundation": 10535,
      "javascript": 10536,
      "management": 10537,
      "mastercard": 10538,
      "powerpoint": 10539,
      "technology": 10540,
      "university": 10541,
      "washington": 10542,
      "application": 10543,
      "association": 10544,
      "development": 10545,
      "information": 10546,
      "playstation": 10547,
      "entertainment": 10548,
      "international": 10549,
      "##0": 10550,
      "##1": 10551,
      "##2": 10552,
      "##3": 10553,
      "##4": 10554,
      "##5": 10555,
      "##6": 10556,
      "##7": 10557,
      "##8": 10558,
      "##9": 10559,
      "##a": 10560,
      "##b": 10561,
      "##c": 10562,
      "##d": 10563,
      "##e": 10564,
      "##f": 10565,
      "##g": 10566,
      "##h": 10567,
      "##i": 10568,
      "##j": 10569,
      "##k": 10570,
      "##l": 10571,
      "##m": 10572,
      "##n": 10573,
      "##o": 10574,
      "##p": 10575,
      "##q": 10576,
      "##r": 10577,
      "##s": 10578,
      "##t": 10579,
      "##u": 10580,
      "##v": 10581,
      "##w": 10582,
      "##x": 10583,
      "##y": 10584,
      "##z": 10585,
      "##00": 10586,
      "##01": 10587,
      "##02": 10588,
      "##03": 10589,
      "##04": 10590,
      "##05": 10591,
      "##06": 10592,
      "##07": 10593,
      "##08": 10594,
      "##09": 10595,
      "##0m": 10596,
      "##10": 10597,
      "##11": 10598,
      "##12": 10599,
      "##13": 10600,
      "##14": 10601,
      "##15": 10602,
      "##16": 10603,
      "##17": 10604,
      "##18": 10605,
      "##19": 10606,
      "##20": 10607,
      "##21": 10608,
      "##22": 10609,
      "##23": 10610,
      "##24": 10611,
      "##25": 10612,
      "##26": 10613,
      "##27": 10614,
      "##28": 10615,
      "##29": 10616,
      "##2c": 10617,
      "##2d": 10618,
      "##2f": 10619,
      "##30": 10620,
      "##31": 10621,
      "##32": 10622,
      "##33": 10623,
      "##34": 10624,
      "##35": 10625,
      "##36": 10626,
      "##37": 10627,
      "##38": 10628,
      "##39": 10629,
      "##3c": 10630,
      "##3d": 10631,
      "##40": 10632,
      "##41": 10633,
      "##42": 10634,
      "##43": 10635,
      "##44": 10636,
      "##45": 10637,
      "##46": 10638,
      "##47": 10639,
      "##48": 10640,
      "##49": 10641,
      "##50": 10642,
      "##51": 10643,
      "##52": 10644,
      "##53": 10645,
      "##54": 10646,
      "##55": 10647,
      "##56": 10648,
      "##57": 10649,
      "##58": 10650,
      "##59": 10651,
      "##5s": 10652,
      "##60": 10653,
      "##61": 10654,
      "##62": 10655,
      "##63": 10656,
      "##64": 10657,
      "##65": 10658,
      "##66": 10659,
      "##67": 10660,
      "##68": 10661,
      "##69": 10662,
      "##70": 10663,
      "##71": 10664,
      "##72": 10665,
      "##73": 10666,
      "##74": 10667,
      "##75": 10668,
      "##76": 10669,
      "##77": 10670,
      "##78": 10671,
      "##79": 10672,
      "##80": 10673,
      "##81": 10674,
      "##82": 10675,
      "##83": 10676,
      "##84": 10677,
      "##85": 10678,
      "##86": 10679,
      "##87": 10680,
      "##88": 10681,
      "##89": 10682,
      "##90": 10683,
      "##91": 10684,
      "##92": 10685,
      "##93": 10686,
      "##94": 10687,
      "##95": 10688,
      "##96": 10689,
      "##97": 10690,
      "##98": 10691,
      "##99": 10692,
      "##a1": 10693,
      "##a2": 10694,
      "##a5": 10695,
      "##aa": 10696,
      "##ab": 10697,
      "##ac": 10698,
      "##ad": 10699,
      "##ae": 10700,
      "##af": 10701,
      "##ag": 10702,
      "##ah": 10703,
      "##ai": 10704,
      "##ak": 10705,
      "##al": 10706,
      "##am": 10707,
      "##an": 10708,
      "##ao": 10709,
      "##ap": 10710,
      "##ar": 10711,
      "##as": 10712,
      "##at": 10713,
      "##au": 10714,
      "##av": 10715,
      "##aw": 10716,
      "##ax": 10717,
      "##ay": 10718,
      "##ba": 10719,
      "##bb": 10720,
      "##bc": 10721,
      "##be": 10722,
      "##bi": 10723,
      "##bo": 10724,
      "##bs": 10725,
      "##bt": 10726,
      "##bu": 10727,
      "##by": 10728,
      "##ca": 10729,
      "##cc": 10730,
      "##cd": 10731,
      "##ce": 10732,
      "##cg": 10733,
      "##ch": 10734,
      "##ci": 10735,
      "##ck": 10736,
      "##cl": 10737,
      "##cm": 10738,
      "##cn": 10739,
      "##co": 10740,
      "##cp": 10741,
      "##cr": 10742,
      "##cs": 10743,
      "##ct": 10744,
      "##cy": 10745,
      "##da": 10746,
      "##db": 10747,
      "##dc": 10748,
      "##dd": 10749,
      "##de": 10750,
      "##di": 10751,
      "##dk": 10752,
      "##dm": 10753,
      "##dn": 10754,
      "##do": 10755,
      "##dp": 10756,
      "##dr": 10757,
      "##ds": 10758,
      "##dt": 10759,
      "##du": 10760,
      "##dy": 10761,
      "##ea": 10762,
      "##ec": 10763,
      "##ed": 10764,
      "##ee": 10765,
      "##ef": 10766,
      "##eg": 10767,
      "##eh": 10768,
      "##ei": 10769,
      "##ek": 10770,
      "##el": 10771,
      "##em": 10772,
      "##en": 10773,
      "##eo": 10774,
      "##ep": 10775,
      "##er": 10776,
      "##es": 10777,
      "##et": 10778,
      "##ev": 10779,
      "##ew": 10780,
      "##ex": 10781,
      "##ey": 10782,
      "##ez": 10783,
      "##fa": 10784,
      "##fc": 10785,
      "##fe": 10786,
      "##ff": 10787,
      "##fi": 10788,
      "##fl": 10789,
      "##fo": 10790,
      "##fr": 10791,
      "##fs": 10792,
      "##ft": 10793,
      "##fu": 10794,
      "##fw": 10795,
      "##fx": 10796,
      "##ga": 10797,
      "##gb": 10798,
      "##gc": 10799,
      "##ge": 10800,
      "##gg": 10801,
      "##gh": 10802,
      "##gi": 10803,
      "##gl": 10804,
      "##gm": 10805,
      "##gn": 10806,
      "##go": 10807,
      "##gp": 10808,
      "##gs": 10809,
      "##gt": 10810,
      "##gy": 10811,
      "##ha": 10812,
      "##hc": 10813,
      "##hd": 10814,
      "##he": 10815,
      "##hg": 10816,
      "##hi": 10817,
      "##hk": 10818,
      "##hl": 10819,
      "##hm": 10820,
      "##hn": 10821,
      "##ho": 10822,
      "##hp": 10823,
      "##hr": 10824,
      "##hs": 10825,
      "##ht": 10826,
      "##hu": 10827,
      "##hy": 10828,
      "##hz": 10829,
      "##ia": 10830,
      "##ic": 10831,
      "##id": 10832,
      "##ie": 10833,
      "##if": 10834,
      "##ig": 10835,
      "##ii": 10836,
      "##ik": 10837,
      "##il": 10838,
      "##im": 10839,
      "##in": 10840,
      "##io": 10841,
      "##ip": 10842,
      "##ir": 10843,
      "##is": 10844,
      "##it": 10845,
      "##iu": 10846,
      "##ix": 10847,
      "##ja": 10848,
      "##ji": 10849,
      "##jo": 10850,
      "##js": 10851,
      "##ju": 10852,
      "##jy": 10853,
      "##ka": 10854,
      "##kb": 10855,
      "##ke": 10856,
      "##kg": 10857,
      "##ki": 10858,
      "##kk": 10859,
      "##km": 10860,
      "##ko": 10861,
      "##ks": 10862,
      "##ku": 10863,
      "##kv": 10864,
      "##kw": 10865,
      "##ky": 10866,
      "##la": 10867,
      "##lc": 10868,
      "##ld": 10869,
      "##le": 10870,
      "##lf": 10871,
      "##li": 10872,
      "##lk": 10873,
      "##ll": 10874,
      "##lm": 10875,
      "##lo": 10876,
      "##lp": 10877,
      "##lr": 10878,
      "##ls": 10879,
      "##lt": 10880,
      "##lu": 10881,
      "##lv": 10882,
      "##ly": 10883,
      "##m2": 10884,
      "##ma": 10885,
      "##mb": 10886,
      "##mc": 10887,
      "##md": 10888,
      "##me": 10889,
      "##mg": 10890,
      "##mi": 10891,
      "##ml": 10892,
      "##mm": 10893,
      "##mn": 10894,
      "##mo": 10895,
      "##mp": 10896,
      "##ms": 10897,
      "##mu": 10898,
      "##mv": 10899,
      "##mw": 10900,
      "##my": 10901,
      "##n1": 10902,
      "##n2": 10903,
      "##na": 10904,
      "##nc": 10905,
      "##nd": 10906,
      "##ne": 10907,
      "##ng": 10908,
      "##ni": 10909,
      "##nk": 10910,
      "##nm": 10911,
      "##nn": 10912,
      "##no": 10913,
      "##np": 10914,
      "##ns": 10915,
      "##nt": 10916,
      "##ny": 10917,
      "##o2": 10918,
      "##oa": 10919,
      "##ob": 10920,
      "##oc": 10921,
      "##od": 10922,
      "##oe": 10923,
      "##of": 10924,
      "##og": 10925,
      "##oh": 10926,
      "##oi": 10927,
      "##ok": 10928,
      "##ol": 10929,
      "##om": 10930,
      "##on": 10931,
      "##oo": 10932,
      "##op": 10933,
      "##or": 10934,
      "##os": 10935,
      "##ot": 10936,
      "##ou": 10937,
      "##ov": 10938,
      "##ow": 10939,
      "##ox": 10940,
      "##oy": 10941,
      "##oz": 10942,
      "##pa": 10943,
      "##pc": 10944,
      "##pd": 10945,
      "##pe": 10946,
      "##ph": 10947,
      "##pi": 10948,
      "##pl": 10949,
      "##pm": 10950,
      "##pn": 10951,
      "##po": 10952,
      "##pp": 10953,
      "##pr": 10954,
      "##ps": 10955,
      "##pt": 10956,
      "##pu": 10957,
      "##px": 10958,
      "##py": 10959,
      "##qi": 10960,
      "##ql": 10961,
      "##qq": 10962,
      "##r3": 10963,
      "##r4": 10964,
      "##ra": 10965,
      "##rc": 10966,
      "##rd": 10967,
      "##re": 10968,
      "##rf": 10969,
      "##ri": 10970,
      "##rk": 10971,
      "##rl": 10972,
      "##rm": 10973,
      "##rn": 10974,
      "##ro": 10975,
      "##rp": 10976,
      "##rr": 10977,
      "##rs": 10978,
      "##rt": 10979,
      "##ru": 10980,
      "##ry": 10981,
      "##sa": 10982,
      "##sc": 10983,
      "##sd": 10984,
      "##se": 10985,
      "##sh": 10986,
      "##si": 10987,
      "##sk": 10988,
      "##sl": 10989,
      "##sm": 10990,
      "##sn": 10991,
      "##so": 10992,
      "##sp": 10993,
      "##ss": 10994,
      "##st": 10995,
      "##su": 10996,
      "##sy": 10997,
      "##ta": 10998,
      "##tb": 10999,
      "##tc": 11000,
      "##te": 11001,
      "##tf": 11002,
      "##th": 11003,
      "##ti": 11004,
      "##tl": 11005,
      "##tm": 11006,
      "##to": 11007,
      "##tp": 11008,
      "##tr": 11009,
      "##ts": 11010,
      "##tt": 11011,
      "##tu": 11012,
      "##tv": 11013,
      "##tw": 11014,
      "##ty": 11015,
      "##tz": 11016,
[...]
